#include "floor_wetness_v13.h"

unsigned char floor_wetness_v13_tflite[] = {
    0x1c, 0x00, 0x00, 0x00, 0x54, 0x46, 0x4c, 0x33, 0x14, 0x00, 0x20, 0x00,
    0x1c, 0x00, 0x18, 0x00, 0x14, 0x00, 0x10, 0x00, 0x0c, 0x00, 0x00, 0x00,
    0x08, 0x00, 0x04, 0x00, 0x14, 0x00, 0x00, 0x00, 0x1c, 0x00, 0x00, 0x00,
    0x8c, 0x00, 0x00, 0x00, 0xe4, 0x00, 0x00, 0x00, 0xbc, 0x0e, 0x00, 0x00,
    0xcc, 0x0e, 0x00, 0x00, 0x0c, 0x18, 0x00, 0x00, 0x03, 0x00, 0x00, 0x00,
    0x01, 0x00, 0x00, 0x00, 0x04, 0x00, 0x00, 0x00, 0x7e, 0xf0, 0xff, 0xff,
    0x0c, 0x00, 0x00, 0x00, 0x1c, 0x00, 0x00, 0x00, 0x3c, 0x00, 0x00, 0x00,
    0x0f, 0x00, 0x00, 0x00, 0x73, 0x65, 0x72, 0x76, 0x69, 0x6e, 0x67, 0x5f,
    0x64, 0x65, 0x66, 0x61, 0x75, 0x6c, 0x74, 0x00, 0x01, 0x00, 0x00, 0x00,
    0x04, 0x00, 0x00, 0x00, 0x90, 0xff, 0xff, 0xff, 0x0e, 0x00, 0x00, 0x00,
    0x04, 0x00, 0x00, 0x00, 0x08, 0x00, 0x00, 0x00, 0x64, 0x65, 0x6e, 0x73,
    0x65, 0x5f, 0x31, 0x32, 0x00, 0x00, 0x00, 0x00, 0x01, 0x00, 0x00, 0x00,
    0x04, 0x00, 0x00, 0x00, 0x22, 0xf1, 0xff, 0xff, 0x04, 0x00, 0x00, 0x00,
    0x0f, 0x00, 0x00, 0x00, 0x63, 0x6f, 0x6e, 0x76, 0x32, 0x64, 0x5f, 0x31,
    0x34, 0x5f, 0x69, 0x6e, 0x70, 0x75, 0x74, 0x00, 0x02, 0x00, 0x00, 0x00,
    0x34, 0x00, 0x00, 0x00, 0x04, 0x00, 0x00, 0x00, 0xdc, 0xff, 0xff, 0xff,
    0x11, 0x00, 0x00, 0x00, 0x04, 0x00, 0x00, 0x00, 0x13, 0x00, 0x00, 0x00,
    0x43, 0x4f, 0x4e, 0x56, 0x45, 0x52, 0x53, 0x49, 0x4f, 0x4e, 0x5f, 0x4d,
    0x45, 0x54, 0x41, 0x44, 0x41, 0x54, 0x41, 0x00, 0x08, 0x00, 0x0c, 0x00,
    0x08, 0x00, 0x04, 0x00, 0x08, 0x00, 0x00, 0x00, 0x10, 0x00, 0x00, 0x00,
    0x04, 0x00, 0x00, 0x00, 0x13, 0x00, 0x00, 0x00, 0x6d, 0x69, 0x6e, 0x5f,
    0x72, 0x75, 0x6e, 0x74, 0x69, 0x6d, 0x65, 0x5f, 0x76, 0x65, 0x72, 0x73,
    0x69, 0x6f, 0x6e, 0x00, 0x12, 0x00, 0x00, 0x00, 0xd4, 0x0d, 0x00, 0x00,
    0xcc, 0x0d, 0x00, 0x00, 0xa4, 0x0d, 0x00, 0x00, 0x88, 0x0d, 0x00, 0x00,
    0xa0, 0x0c, 0x00, 0x00, 0x08, 0x0a, 0x00, 0x00, 0xe8, 0x09, 0x00, 0x00,
    0xd0, 0x09, 0x00, 0x00, 0xc0, 0x00, 0x00, 0x00, 0xb8, 0x00, 0x00, 0x00,
    0xb0, 0x00, 0x00, 0x00, 0xa8, 0x00, 0x00, 0x00, 0xa0, 0x00, 0x00, 0x00,
    0x98, 0x00, 0x00, 0x00, 0x90, 0x00, 0x00, 0x00, 0x88, 0x00, 0x00, 0x00,
    0x68, 0x00, 0x00, 0x00, 0x04, 0x00, 0x00, 0x00, 0xe6, 0xf1, 0xff, 0xff,
    0x04, 0x00, 0x00, 0x00, 0x54, 0x00, 0x00, 0x00, 0x0c, 0x00, 0x00, 0x00,
    0x08, 0x00, 0x0e, 0x00, 0x08, 0x00, 0x04, 0x00, 0x08, 0x00, 0x00, 0x00,
    0x10, 0x00, 0x00, 0x00, 0x24, 0x00, 0x00, 0x00, 0x00, 0x00, 0x06, 0x00,
    0x08, 0x00, 0x04, 0x00, 0x06, 0x00, 0x00, 0x00, 0x04, 0x00, 0x00, 0x00,
    0x00, 0x00, 0x00, 0x00, 0x00, 0x00, 0x0a, 0x00, 0x10, 0x00, 0x0c, 0x00,
    0x08, 0x00, 0x04, 0x00, 0x0a, 0x00, 0x00, 0x00, 0x02, 0x00, 0x00, 0x00,
    0x02, 0x00, 0x00, 0x00, 0x04, 0x00, 0x00, 0x00, 0x06, 0x00, 0x00, 0x00,
    0x32, 0x2e, 0x31, 0x30, 0x2e, 0x30, 0x00, 0x00, 0x46, 0xf2, 0xff, 0xff,
    0x04, 0x00, 0x00, 0x00, 0x10, 0x00, 0x00, 0x00, 0x31, 0x2e, 0x35, 0x2e,
    0x30, 0x00, 0x00, 0x00, 0x00, 0x00, 0x00, 0x00, 0x00, 0x00, 0x00, 0x00,
    0xd8, 0xe9, 0xff, 0xff, 0xdc, 0xe9, 0xff, 0xff, 0xe0, 0xe9, 0xff, 0xff,
    0xe4, 0xe9, 0xff, 0xff, 0xe8, 0xe9, 0xff, 0xff, 0xec, 0xe9, 0xff, 0xff,
    0xf0, 0xe9, 0xff, 0xff, 0x7e, 0xf2, 0xff, 0xff, 0x04, 0x00, 0x00, 0x00,
    0x00, 0x09, 0x00, 0x00, 0xa0, 0x2a, 0x39, 0xbd, 0x84, 0x49, 0xb0, 0x3e,
    0xcd, 0x19, 0xd3, 0xbe, 0xcb, 0xe9, 0x9f, 0xbd, 0x74, 0x15, 0x36, 0x3e,
    0xab, 0x7a, 0xbc, 0xbd, 0xf7, 0xe0, 0x40, 0xbe, 0xc7, 0x26, 0x26, 0x3e,
    0x7f, 0x7c, 0x27, 0x3e, 0x3a, 0x13, 0x6f, 0x3d, 0xe7, 0x97, 0x4b, 0xbe,
    0x50, 0xd1, 0xbb, 0x3e, 0xc4, 0xd7, 0x87, 0xbd, 0x05, 0x08, 0xb2, 0xbe,
    0xa2, 0xf8, 0x50, 0x3e, 0x43, 0x83, 0x7b, 0xbe, 0xe3, 0x18, 0xae, 0xbe,
    0x7c, 0xa4, 0xab, 0x3e, 0x2d, 0x88, 0x1a, 0xbc, 0x34, 0x0c, 0x91, 0xbd,
    0xac, 0xa3, 0x00, 0x3f, 0xad, 0xa3, 0x58, 0xbd, 0xf0, 0xfe, 0x15, 0xbe,
    0x48, 0xbb, 0x02, 0x3e, 0x25, 0xc2, 0x0d, 0xbc, 0x90, 0x15, 0x03, 0x3d,
    0xbf, 0xc2, 0x8b, 0x3e, 0xb8, 0x52, 0x10, 0xbe, 0x9f, 0x0c, 0xc8, 0x3c,
    0xad, 0x46, 0xb2, 0xbd, 0x5a, 0x4d, 0x1c, 0xbe, 0x06, 0x8d, 0xa2, 0xbe,
    0xe7, 0x34, 0xf3, 0xbd, 0x8a, 0x1e, 0x36, 0x3e, 0xdd, 0x80, 0x91, 0xbd,
    0x00, 0x43, 0x43, 0xbe, 0x1c, 0x3d, 0x0c, 0xbc, 0xdd, 0x52, 0xd5, 0xbe,
    0x8d, 0x00, 0xc3, 0x3c, 0x2c, 0x50, 0x91, 0xbd, 0x4e, 0xd4, 0xcc, 0xbe,
    0x80, 0x72, 0xcb, 0xbd, 0x6e, 0x9c, 0x0b, 0x3d, 0x2a, 0x51, 0xee, 0xbe,
    0x27, 0x6d, 0x57, 0xbe, 0x96, 0x4a, 0xb0, 0x3c, 0x40, 0x8a, 0x09, 0xbf,
    0x2c, 0xeb, 0xb2, 0xbd, 0x7b, 0xff, 0x8b, 0x3d, 0xaf, 0x13, 0x07, 0xbe,
    0xb5, 0xce, 0xdf, 0x3d, 0xf6, 0x4f, 0x98, 0x3d, 0x51, 0xaa, 0x56, 0x3e,
    0x57, 0x54, 0x15, 0xbe, 0x7c, 0xc8, 0xc7, 0xbd, 0x80, 0x4e, 0x9c, 0x3e,
    0x43, 0xe1, 0xa2, 0xbe, 0x4f, 0xf1, 0x47, 0x3e, 0x26, 0x09, 0x55, 0x3e,
    0x32, 0x4b, 0xfd, 0xbe, 0xaa, 0xd9, 0x80, 0x3e, 0x5c, 0x5f, 0xcd, 0xbd,
    0x37, 0x9b, 0xd0, 0xbe, 0xd3, 0x75, 0x14, 0x3d, 0x41, 0x7b, 0x9c, 0x3d,
    0xbf, 0x0f, 0x14, 0xbe, 0x46, 0x17, 0xb9, 0xbd, 0xfa, 0x5e, 0x48, 0xbe,
    0x24, 0x3d, 0xb5, 0xbe, 0x8b, 0xb5, 0x22, 0xbd, 0xdd, 0xd1, 0x59, 0xbe,
    0xa3, 0x29, 0x81, 0xbe, 0x73, 0x2a, 0x0f, 0x3d, 0x48, 0x53, 0x2c, 0x3e,
    0x8e, 0xbc, 0x98, 0xbd, 0x16, 0x01, 0x09, 0x3d, 0x95, 0xea, 0xcf, 0x3e,
    0x60, 0x07, 0x86, 0xbe, 0xc5, 0xd0, 0x92, 0xbe, 0x01, 0x31, 0xa4, 0x3e,
    0xfa, 0x7a, 0x1b, 0xbe, 0x3f, 0xb5, 0xe3, 0x3d, 0x82, 0x88, 0xc8, 0x3d,
    0x7c, 0xa2, 0x0c, 0x3e, 0x0b, 0x78, 0xa2, 0xbd, 0x39, 0xc6, 0xd6, 0x3e,
    0x7b, 0x5a, 0x93, 0xbe, 0x8e, 0x5b, 0x1b, 0x3d, 0xef, 0xa0, 0x96, 0x3d,
    0x1c, 0x5a, 0xb2, 0xbe, 0x6f, 0xb3, 0x45, 0x3d, 0x1b, 0xfe, 0x37, 0x3e,
    0x44, 0xea, 0x0f, 0xbe, 0x1a, 0x11, 0x8a, 0x3d, 0xd6, 0x63, 0xa1, 0xb7,
    0x74, 0x58, 0x84, 0xbe, 0x99, 0x91, 0x16, 0x3e, 0x94, 0x98, 0x3a, 0x3e,
    0x35, 0x54, 0x96, 0x3d, 0xf7, 0xac, 0xcf, 0x3d, 0xfd, 0xf8, 0x4e, 0x3e,
    0x75, 0x03, 0x8c, 0x3d, 0x36, 0x95, 0x04, 0x3e, 0xf8, 0xc4, 0x7a, 0x3e,
    0x75, 0x8a, 0x23, 0xbd, 0x9d, 0x5e, 0x90, 0xbb, 0x8f, 0x83, 0x51, 0x3e,
    0x75, 0x11, 0x64, 0x3e, 0x16, 0xd2, 0x0c, 0x3e, 0x7c, 0x26, 0xb6, 0x3e,
    0x16, 0x25, 0x95, 0xbd, 0x3b, 0x16, 0xff, 0x3d, 0xb3, 0x2a, 0xd7, 0x3d,
    0xc3, 0x6b, 0x60, 0xbe, 0xa8, 0xb1, 0x8c, 0x3e, 0xff, 0x25, 0x33, 0x3c,
    0x95, 0x3d, 0x78, 0xbe, 0x2a, 0x77, 0x0f, 0x3d, 0x01, 0x3a, 0x04, 0x3e,
    0xd4, 0x95, 0x8a, 0xbe, 0x35, 0x0f, 0xb7, 0xbb, 0x38, 0x41, 0xe5, 0xbd,
    0x73, 0xcd, 0x41, 0x3e, 0x9a, 0xac, 0xd0, 0xbd, 0x1f, 0xb4, 0x5c, 0x3d,
    0x36, 0xa7, 0xa7, 0x3c, 0x2e, 0x49, 0x56, 0xbe, 0xae, 0x4d, 0x04, 0xbc,
    0x77, 0x9e, 0x36, 0xbd, 0xff, 0x39, 0xf0, 0xbc, 0xa9, 0xb5, 0xca, 0xbc,
    0xd2, 0xca, 0xd0, 0xbd, 0x77, 0x0a, 0xf6, 0xbd, 0xa7, 0x58, 0x56, 0xbd,
    0xa7, 0xc8, 0x5a, 0x3d, 0x46, 0x2d, 0x7f, 0x3e, 0xb4, 0xb0, 0x86, 0xbe,
    0x01, 0xf7, 0x37, 0x3e, 0x09, 0x71, 0xe9, 0x3d, 0xf6, 0xaf, 0x17, 0x3c,
    0xa8, 0xcf, 0x31, 0x3e, 0x7d, 0x13, 0x9c, 0x3d, 0xcc, 0x44, 0xd1, 0xbe,
    0xac, 0x74, 0xef, 0x3c, 0x8b, 0x14, 0x96, 0x3e, 0x2e, 0xbb, 0x24, 0xbf,
    0x6f, 0x7e, 0xda, 0xbe, 0x76, 0x48, 0x84, 0x3e, 0xa8, 0x81, 0x33, 0xbe,
    0xa9, 0x3b, 0xe4, 0xbe, 0xd2, 0x79, 0x48, 0x3d, 0x57, 0x88, 0x8c, 0x3d,
    0xb2, 0xcf, 0xbc, 0xbe, 0xb7, 0xbb, 0x13, 0x3e, 0x6e, 0xec, 0xa6, 0x3d,
    0x63, 0x66, 0x11, 0xbf, 0xd6, 0x26, 0x05, 0xbc, 0x33, 0x38, 0x25, 0x3e,
    0x40, 0x99, 0x8e, 0xbe, 0x10, 0x0a, 0x9d, 0xbd, 0x7c, 0xeb, 0x09, 0xbe,
    0xb0, 0x10, 0xc0, 0xbe, 0x4a, 0x99, 0x89, 0x3d, 0xe1, 0x98, 0x96, 0xbe,
    0x25, 0x66, 0x8e, 0xbe, 0x5d, 0x2f, 0x18, 0x3e, 0xf0, 0x77, 0x2f, 0xbe,
    0x3c, 0x98, 0x7d, 0xbe, 0x20, 0xe5, 0x26, 0x3e, 0xa2, 0xbc, 0xad, 0xbe,
    0x09, 0xd4, 0xa8, 0xbe, 0x03, 0xd8, 0x0d, 0x3e, 0x19, 0x65, 0x03, 0x3e,
    0x33, 0xbe, 0xcc, 0xbe, 0x7f, 0x75, 0xeb, 0x3d, 0x7d, 0x6c, 0x96, 0x3e,
    0x01, 0x62, 0x48, 0xbd, 0x90, 0x12, 0x11, 0x3a, 0x28, 0x52, 0x76, 0x3e,
    0xc1, 0x6a, 0xab, 0x3d, 0x5d, 0x40, 0x0b, 0xbc, 0xde, 0xc7, 0x1a, 0x3f,
    0xde, 0x34, 0x65, 0x3e, 0x71, 0x38, 0x90, 0x3d, 0xc0, 0xa5, 0x05, 0x3f,
    0xe9, 0x44, 0xa6, 0xbd, 0x45, 0x84, 0xc2, 0x3d, 0xef, 0xdc, 0xc9, 0x3e,
    0x07, 0xe3, 0x30, 0x3c, 0xbe, 0x3d, 0xd7, 0x3d, 0xa2, 0xf3, 0x7b, 0x3d,
    0xe1, 0xbb, 0x83, 0xbd, 0xb1, 0x00, 0x29, 0x3d, 0x7c, 0xf1, 0x62, 0xbe,
    0xac, 0x78, 0x2b, 0x3e, 0x2f, 0x66, 0xc6, 0xbd, 0xea, 0xfd, 0x4a, 0x3e,
    0xbc, 0x2c, 0xe4, 0x3d, 0xe9, 0x8f, 0xf0, 0xbd, 0x03, 0xcf, 0x0b, 0xbc,
    0xff, 0x4c, 0x27, 0x3e, 0x79, 0xbd, 0x91, 0x3d, 0xce, 0x35, 0x23, 0x3e,
    0x5d, 0x11, 0x87, 0x3e, 0x19, 0xfb, 0x46, 0xbe, 0x63, 0x5d, 0x12, 0x3e,
    0x90, 0xf9, 0x61, 0x3e, 0xf9, 0xf9, 0x18, 0x3e, 0x82, 0x8e, 0xdf, 0xbd,
    0xb6, 0x13, 0x49, 0x3e, 0x1c, 0xf6, 0x7d, 0xbe, 0xc4, 0x9d, 0x0c, 0xbc,
    0x16, 0xfe, 0x0e, 0x3e, 0xb4, 0x49, 0x98, 0xbd, 0x22, 0xf9, 0xbb, 0xbe,
    0x9a, 0x18, 0xd5, 0x3d, 0x22, 0x75, 0x79, 0x3d, 0x56, 0x76, 0xaf, 0xbd,
    0x1b, 0x1f, 0x32, 0xbe, 0xaa, 0x20, 0x2d, 0x3e, 0x15, 0x4e, 0x6b, 0xbd,
    0xf7, 0xb0, 0xd3, 0xbd, 0x91, 0x53, 0x0b, 0xbe, 0xc6, 0xe8, 0xee, 0xbd,
    0x8f, 0xf8, 0xb6, 0x3d, 0x9b, 0xa6, 0x6f, 0x3d, 0x95, 0xbf, 0x15, 0xbe,
    0x55, 0x93, 0x52, 0x3e, 0x8b, 0x72, 0x34, 0x3d, 0x45, 0x5e, 0xba, 0xbe,
    0x50, 0xc0, 0xe7, 0x3d, 0x8b, 0xa6, 0xfd, 0xbd, 0x66, 0x60, 0x97, 0x3d,
    0xb2, 0x9c, 0x67, 0x3e, 0x48, 0x35, 0x64, 0xbe, 0xd1, 0x11, 0x7a, 0x3e,
    0x00, 0x2c, 0x56, 0x3e, 0x11, 0x19, 0xca, 0xbc, 0xf4, 0xc2, 0xcb, 0x3d,
    0xf0, 0xfa, 0x59, 0x3e, 0x4a, 0x71, 0xaa, 0xbc, 0xa1, 0xcc, 0x02, 0xbf,
    0x23, 0xa8, 0x39, 0xbe, 0x91, 0xf6, 0x01, 0xbe, 0x2d, 0x14, 0x32, 0xbe,
    0xdc, 0xde, 0x66, 0xbc, 0x2a, 0x70, 0x40, 0xbd, 0x13, 0x01, 0x11, 0xbe,
    0x43, 0x71, 0x06, 0x3d, 0x0f, 0xa2, 0xae, 0x3d, 0x9a, 0x48, 0x06, 0x3d,
    0x8a, 0xa0, 0xb1, 0x3b, 0xd0, 0x82, 0xb0, 0x3d, 0xc3, 0x05, 0x92, 0xbe,
    0xeb, 0xce, 0xab, 0xbd, 0x06, 0xf8, 0x6b, 0xbc, 0x43, 0x4f, 0x94, 0xbe,
    0xee, 0xd3, 0xec, 0x3d, 0xa6, 0x70, 0xd0, 0x3d, 0xc9, 0xcb, 0xa2, 0xbe,
    0x14, 0x21, 0xf0, 0x3d, 0x1b, 0x2d, 0xcb, 0xbc, 0x67, 0xdf, 0x01, 0xbf,
    0x6c, 0x06, 0x85, 0x3c, 0xdb, 0xf1, 0x22, 0xbe, 0x88, 0x2a, 0x75, 0xbe,
    0xff, 0x61, 0xed, 0xbe, 0x1b, 0xc7, 0x8c, 0x3d, 0x41, 0x42, 0xc5, 0xbc,
    0x30, 0x37, 0x52, 0xbc, 0xf3, 0xce, 0xd8, 0xbd, 0xbd, 0xea, 0x51, 0xbe,
    0x8d, 0x08, 0x6d, 0xbe, 0x9e, 0x1b, 0x11, 0x3e, 0xb5, 0x2c, 0xd6, 0xbe,
    0xdb, 0x48, 0x24, 0x3e, 0x87, 0xe3, 0xcf, 0x3d, 0x3c, 0x80, 0xc6, 0xbe,
    0x54, 0xde, 0x18, 0x3d, 0x95, 0xde, 0x04, 0x3d, 0x7f, 0xa9, 0x13, 0xbf,
    0x1e, 0x2f, 0xae, 0xbb, 0x6b, 0xe8, 0xb6, 0xbd, 0x0e, 0x30, 0xe4, 0xbe,
    0xc7, 0xd1, 0x4c, 0xbd, 0x1f, 0x3d, 0x0e, 0x3c, 0xda, 0x8f, 0xc0, 0xbe,
    0x9b, 0x1d, 0x27, 0xbe, 0x1d, 0x4f, 0xcc, 0xbe, 0x38, 0x6f, 0x41, 0xbe,
    0x9a, 0x5a, 0xce, 0x3e, 0x2a, 0x42, 0x0b, 0xbf, 0x77, 0xdf, 0x55, 0xbe,
    0x2e, 0xdb, 0x23, 0x3f, 0x4d, 0x6a, 0x71, 0xbe, 0x55, 0xf3, 0xa7, 0xbe,
    0x19, 0xce, 0x0d, 0x3f, 0xd1, 0x77, 0x9b, 0xbd, 0x04, 0xec, 0x2a, 0xbe,
    0x46, 0xc6, 0xb0, 0x3e, 0xab, 0x58, 0xd0, 0xbe, 0xf4, 0x70, 0x0f, 0xbe,
    0xa1, 0xec, 0xea, 0x3e, 0x0e, 0x94, 0x08, 0xbe, 0x03, 0xc2, 0x84, 0xbc,
    0x34, 0xb5, 0x93, 0x3e, 0x75, 0x3f, 0x37, 0xbe, 0x88, 0x0f, 0xf5, 0x3d,
    0x54, 0xbd, 0x7f, 0x3e, 0xa8, 0x59, 0x74, 0xbe, 0x40, 0xe5, 0x66, 0x3e,
    0x43, 0x1e, 0xac, 0x3e, 0x04, 0x59, 0x92, 0xbd, 0x66, 0x83, 0xf6, 0xbd,
    0xeb, 0xfd, 0x80, 0x3e, 0xe3, 0x57, 0x42, 0x3d, 0x9f, 0x39, 0x3d, 0xbe,
    0x77, 0xc0, 0x0e, 0x3c, 0xc6, 0x2a, 0x9b, 0x3e, 0xbe, 0x35, 0x9b, 0x3d,
    0x01, 0xe9, 0xaf, 0xbd, 0x74, 0x87, 0x8c, 0x3c, 0x75, 0x0c, 0x05, 0x3d,
    0xd9, 0xbb, 0x59, 0xbd, 0x9a, 0x2a, 0x90, 0x3e, 0xae, 0x0f, 0x58, 0xbe,
    0x51, 0xb4, 0x55, 0x3e, 0x75, 0x87, 0x9e, 0xbd, 0x1c, 0x53, 0x44, 0xbe,
    0x0f, 0x5b, 0x88, 0x3d, 0x20, 0x7d, 0x31, 0xbe, 0xfb, 0xaf, 0x03, 0x3d,
    0x9c, 0xd6, 0xc1, 0x3e, 0xbe, 0x8b, 0xb6, 0xbd, 0xbe, 0x23, 0xbc, 0x3e,
    0xc7, 0x5a, 0xd7, 0x3e, 0x6e, 0xd7, 0x11, 0x3d, 0xeb, 0xd2, 0x29, 0xbd,
    0x99, 0x4b, 0x08, 0x3e, 0x2c, 0xb7, 0x6b, 0x3e, 0x88, 0xce, 0xc2, 0x3d,
    0x07, 0x96, 0x51, 0x3e, 0xd0, 0xcf, 0x7b, 0x3e, 0x44, 0x2d, 0xa3, 0xbd,
    0x02, 0x39, 0x2d, 0x3e, 0xfd, 0x18, 0xcf, 0x3e, 0x77, 0x36, 0x0b, 0xbe,
    0x0b, 0x6f, 0x0d, 0xbe, 0xff, 0xdc, 0xb4, 0x3c, 0xc5, 0x4c, 0xf6, 0x3d,
    0x0d, 0x11, 0xb3, 0x3d, 0x81, 0x7e, 0xb2, 0x3d, 0x1e, 0x2c, 0x03, 0x3c,
    0x89, 0x62, 0xc6, 0x3d, 0x5b, 0x80, 0xf5, 0x3d, 0x08, 0xe7, 0x8d, 0x3e,
    0xf6, 0xa8, 0x95, 0x3e, 0x96, 0xb6, 0xfc, 0xbd, 0x7d, 0xe1, 0x6b, 0x3e,
    0xc7, 0x76, 0x9b, 0x3e, 0xb5, 0x51, 0x80, 0xbe, 0x48, 0xa8, 0x19, 0xbc,
    0xf8, 0xf8, 0xe4, 0xbc, 0x6d, 0x58, 0x3f, 0x3e, 0xf9, 0x29, 0x5b, 0x3d,
    0x93, 0x42, 0xe6, 0x3d, 0x64, 0x52, 0x13, 0x3e, 0xa7, 0x27, 0x81, 0x3d,
    0x15, 0x69, 0x9b, 0xbd, 0xa0, 0x88, 0x01, 0x3e, 0xd3, 0xe0, 0x16, 0xbe,
    0x45, 0x09, 0x4c, 0x3e, 0x33, 0x94, 0x9b, 0x3e, 0x0f, 0xf2, 0x14, 0x3e,
    0x9a, 0x9b, 0x67, 0x3e, 0xcd, 0x9e, 0xeb, 0x3d, 0x8e, 0x1a, 0x0f, 0xbe,
    0xb3, 0xe7, 0x1e, 0x3d, 0x23, 0x19, 0xae, 0xbd, 0x95, 0xea, 0x49, 0x3e,
    0x5e, 0x04, 0x1e, 0x3e, 0x47, 0x4d, 0xeb, 0xbd, 0x00, 0xde, 0x8d, 0x3e,
    0x73, 0xc2, 0xba, 0x3e, 0x75, 0x50, 0x19, 0xbe, 0xb9, 0xc1, 0x77, 0x3e,
    0xdb, 0x00, 0x9c, 0xbc, 0xe7, 0x7d, 0x46, 0xbe, 0x5f, 0x1c, 0x51, 0x3e,
    0x50, 0x15, 0x26, 0x3e, 0xf1, 0x11, 0x2a, 0x3e, 0xbd, 0x87, 0xbf, 0x3b,
    0x7a, 0x00, 0xdb, 0x3b, 0xe2, 0xfe, 0xc1, 0x3d, 0xac, 0x30, 0x30, 0x3c,
    0xad, 0x77, 0x96, 0xbd, 0x7c, 0xea, 0x31, 0x3e, 0xc0, 0xe0, 0x1c, 0x3e,
    0xcc, 0x92, 0x42, 0x3e, 0xa5, 0xcb, 0x3f, 0x3d, 0xb9, 0xa9, 0xa9, 0xbd,
    0x9c, 0x45, 0x01, 0xbd, 0x2b, 0x87, 0xcb, 0xbd, 0xf8, 0x61, 0x27, 0x3e,
    0x18, 0xe7, 0x31, 0x3d, 0x6d, 0xe8, 0xaa, 0xbd, 0x06, 0xe5, 0x8b, 0x3e,
    0x40, 0x5e, 0x11, 0xba, 0xf0, 0x01, 0xea, 0xbe, 0xe6, 0xfa, 0x2f, 0x3f,
    0xc1, 0x21, 0xc1, 0xbe, 0xdc, 0x09, 0x4a, 0xbe, 0x6a, 0xab, 0xe7, 0x3e,
    0x60, 0x02, 0x7b, 0xbe, 0x4b, 0x1f, 0x79, 0xbe, 0x03, 0x18, 0x83, 0x3d,
    0x9f, 0xc0, 0x42, 0xbc, 0x32, 0xa0, 0x9c, 0xbe, 0x41, 0x1c, 0xb9, 0x3e,
    0xd7, 0x97, 0x93, 0xbd, 0x02, 0x4b, 0xf6, 0xbc, 0xe7, 0x29, 0x87, 0x3e,
    0x38, 0x21, 0xe7, 0x3b, 0x5c, 0x0d, 0xc3, 0x3c, 0xf7, 0xd7, 0x7c, 0x3e,
    0x84, 0x27, 0x23, 0x3e, 0x96, 0xf7, 0x1d, 0xbe, 0x34, 0x1b, 0xc0, 0x3e,
    0xf6, 0xaa, 0xae, 0x3d, 0x4e, 0x9f, 0x89, 0xbe, 0x37, 0xc4, 0xae, 0x3e,
    0x0d, 0xcc, 0x98, 0x3d, 0xee, 0x0a, 0xfb, 0x3d, 0xd9, 0xda, 0xf3, 0x3e,
    0x34, 0xaf, 0x30, 0x3e, 0x09, 0xb8, 0x17, 0x3e, 0x51, 0xf9, 0x52, 0x3e,
    0xfe, 0x92, 0xcf, 0x3d, 0xa4, 0x31, 0x64, 0xbd, 0x42, 0xf3, 0x9b, 0xbc,
    0x19, 0x42, 0x00, 0xbe, 0x22, 0x2d, 0x11, 0x3e, 0x53, 0x90, 0x29, 0x3e,
    0x60, 0x4c, 0xf7, 0xbe, 0x4e, 0x90, 0x14, 0x3e, 0x37, 0xa4, 0xc1, 0x3e,
    0xc4, 0x21, 0x23, 0xbe, 0x0c, 0xba, 0xca, 0x3d, 0x54, 0xc6, 0xbe, 0x3e,
    0xdc, 0xfc, 0x1b, 0xbf, 0x94, 0x5d, 0xd4, 0x3e, 0xbe, 0x61, 0x76, 0x3c,
    0x85, 0xd5, 0x31, 0xbf, 0x69, 0x8b, 0x6e, 0x3e, 0xba, 0x19, 0xb1, 0xbd,
    0xf8, 0xc7, 0x20, 0xbf, 0xaa, 0x89, 0x95, 0xbd, 0x7d, 0x2b, 0x8f, 0xbe,
    0xad, 0xad, 0xab, 0xbe, 0x7b, 0x2c, 0x4f, 0xbe, 0xde, 0x0c, 0x08, 0xbd,
    0xbd, 0xde, 0xe1, 0xbd, 0xd2, 0xda, 0x24, 0xbd, 0xda, 0xd1, 0x85, 0xbe,
    0x6d, 0xeb, 0xe5, 0xbd, 0x63, 0x85, 0x80, 0xbe, 0x58, 0x3d, 0xa0, 0xbd,
    0x8e, 0xd9, 0x0a, 0x3e, 0xd1, 0x9e, 0x6b, 0xbe, 0xef, 0xae, 0x2c, 0xbe,
    0x01, 0xcc, 0x1a, 0xbe, 0xde, 0xb4, 0x2f, 0xbd, 0xd5, 0xd2, 0x77, 0xbe,
    0xb3, 0x85, 0x74, 0x3d, 0x80, 0x25, 0x1f, 0x3d, 0x94, 0xc7, 0x3c, 0x3e,
    0xe5, 0xe9, 0xc7, 0xbe, 0xb0, 0x3c, 0x31, 0x3e, 0x90, 0x53, 0x81, 0x3e,
    0x39, 0xba, 0x9c, 0xbe, 0x19, 0x89, 0x9e, 0xbd, 0x14, 0x6b, 0x0d, 0x3d,
    0xc3, 0xb3, 0x40, 0x3c, 0x40, 0x5c, 0xb3, 0xbe, 0x16, 0x47, 0x93, 0xbe,
    0x72, 0x2c, 0x62, 0x3e, 0xd4, 0x8d, 0xc7, 0x3c, 0xfa, 0xe3, 0xd2, 0xbe,
    0x6d, 0x76, 0x10, 0xbe, 0x18, 0x71, 0x49, 0xbd, 0x40, 0xdd, 0x9f, 0xbe,
    0x55, 0xe1, 0xb1, 0xbd, 0xff, 0x2c, 0xb7, 0xbd, 0x87, 0xf5, 0xbc, 0xbe,
    0x2a, 0xf6, 0x8c, 0x3d, 0x94, 0xc1, 0x71, 0xbe, 0x70, 0x9f, 0x71, 0xbe,
    0xdd, 0xd5, 0x09, 0xbe, 0x0e, 0xba, 0x08, 0xbc, 0x47, 0x38, 0x2d, 0xbe,
    0x2e, 0xa5, 0x08, 0xbe, 0x32, 0x75, 0x13, 0x3e, 0xca, 0x1f, 0x3e, 0x3e,
    0x51, 0xca, 0xca, 0x3d, 0x1c, 0x0e, 0xeb, 0xbd, 0xea, 0xde, 0xb6, 0xbe,
    0x24, 0x70, 0xd2, 0x3d, 0xbe, 0xb6, 0x3c, 0x3d, 0x5f, 0x75, 0xac, 0xbe,
    0x12, 0x32, 0x55, 0x3e, 0xf0, 0x73, 0x82, 0xbd, 0xe5, 0x41, 0xb8, 0xbe,
    0xab, 0x86, 0xdb, 0xbc, 0x5c, 0x63, 0x72, 0xbe, 0xd4, 0x29, 0x04, 0xbe,
    0x18, 0x57, 0x07, 0xbe, 0xa1, 0xae, 0x71, 0xbe, 0xff, 0xb9, 0xfd, 0xbd,
    0x66, 0x20, 0x18, 0x3e, 0x63, 0x27, 0xd1, 0x3c, 0x3d, 0x68, 0x1c, 0xbf,
    0x10, 0x12, 0xab, 0xbd, 0x2a, 0xd6, 0xbe, 0xbd, 0xf1, 0x59, 0x76, 0xbe,
    0xa7, 0xb6, 0x00, 0x3e, 0x99, 0x77, 0x9a, 0x3d, 0xd7, 0x35, 0x40, 0xbe,
    0xe1, 0xcf, 0xe3, 0x3d, 0x99, 0x5e, 0x7d, 0x39, 0xe3, 0x66, 0x01, 0x3e,
    0x89, 0x1d, 0x6c, 0x3e, 0x2d, 0xd9, 0x08, 0xbe, 0x43, 0x75, 0xfb, 0x3d,
    0xe2, 0x2a, 0x9a, 0x3d, 0x22, 0xe7, 0x34, 0xbd, 0x6d, 0xb0, 0xaf, 0xbe,
    0xfd, 0x1d, 0xb6, 0x3d, 0xc5, 0x1b, 0xd0, 0x3d, 0xb4, 0x66, 0x1f, 0xbe,
    0x92, 0x8a, 0x01, 0x3e, 0xac, 0xb9, 0xe2, 0xbd, 0x6f, 0x32, 0xd1, 0xbd,
    0x28, 0x34, 0x58, 0x3e, 0xf5, 0xc5, 0x2c, 0x3e, 0x2a, 0x57, 0x65, 0xbe,
    0x06, 0x79, 0xca, 0x3d, 0xcf, 0xa5, 0x32, 0xbe, 0x72, 0x99, 0xd5, 0xbd,
    0x77, 0x2e, 0x01, 0x3e, 0x8e, 0xe6, 0x9b, 0xbd, 0xc8, 0x59, 0x04, 0xbe,
    0x3e, 0x12, 0x67, 0x3e, 0xa5, 0xa9, 0x54, 0x3e, 0x71, 0x67, 0xe2, 0xbe,
    0x02, 0x77, 0xaa, 0x3c, 0xde, 0x9e, 0x5b, 0x3e, 0x53, 0xa5, 0xda, 0xbe,
    0x17, 0xc6, 0x16, 0x3e, 0xda, 0x7b, 0x84, 0x3e, 0x2b, 0x16, 0x21, 0x3d,
    0xe5, 0x03, 0xbb, 0x3e, 0x06, 0xe7, 0xa1, 0x3c, 0x80, 0xba, 0x77, 0x3d,
    0x86, 0x7e, 0x63, 0x3e, 0xac, 0xa8, 0x4a, 0xbe, 0xb1, 0x67, 0x60, 0x3e,
    0x57, 0x91, 0x10, 0x3e, 0xa2, 0x69, 0xad, 0x3d, 0xff, 0xda, 0x88, 0x3e,
    0x6e, 0x24, 0xbe, 0xbc, 0x12, 0xc4, 0x5c, 0xbe, 0x37, 0xba, 0xa0, 0x3e,
    0x4a, 0x07, 0x98, 0xbd, 0x9d, 0x3e, 0x1b, 0xbe, 0x0d, 0x9f, 0x88, 0x3e,
    0x34, 0xe3, 0xd5, 0xba, 0x8a, 0xfb, 0xff, 0xff, 0x04, 0x00, 0x00, 0x00,
    0x08, 0x00, 0x00, 0x00, 0xff, 0xff, 0xff, 0xff, 0x90, 0x00, 0x00, 0x00,
    0x9e, 0xfb, 0xff, 0xff, 0x04, 0x00, 0x00, 0x00, 0x10, 0x00, 0x00, 0x00,
    0x2d, 0x9a, 0x5d, 0x3d, 0x4a, 0x2d, 0xaf, 0xbd, 0x08, 0x45, 0x0f, 0x3d,
    0x8c, 0x70, 0xf7, 0x3b, 0xba, 0xfb, 0xff, 0xff, 0x04, 0x00, 0x00, 0x00,
    0x88, 0x02, 0x00, 0x00, 0x7c, 0xea, 0x74, 0x3e, 0xbe, 0x40, 0x97, 0xbe,
    0xbf, 0xf9, 0x3c, 0x3e, 0x3c, 0xcb, 0x55, 0x3e, 0xec, 0x2b, 0x1b, 0x3f,
    0xb9, 0x76, 0x5a, 0x3e, 0x30, 0xc6, 0x13, 0x3f, 0xfe, 0x74, 0x9d, 0xbe,
    0x7d, 0xa1, 0x5d, 0x3e, 0xc8, 0x9a, 0x65, 0x3d, 0x14, 0x71, 0xa4, 0x3e,
    0x67, 0xe0, 0x62, 0x3e, 0x86, 0x0c, 0xe3, 0x3e, 0xe4, 0x23, 0xce, 0xbe,
    0x2e, 0x18, 0x6e, 0x3e, 0xa6, 0x19, 0x00, 0x3e, 0xe8, 0x29, 0x18, 0x3f,
    0x67, 0xf6, 0x9b, 0x3e, 0xb0, 0xe2, 0xef, 0x3d, 0xca, 0xce, 0x49, 0xbe,
    0xbb, 0xc3, 0x0a, 0xbe, 0x50, 0x25, 0xe7, 0xbd, 0xa0, 0xd5, 0x46, 0x3e,
    0xed, 0xd6, 0x8f, 0xbe, 0x29, 0xce, 0x64, 0xbd, 0x91, 0x7b, 0x75, 0xbe,
    0x2b, 0xa2, 0xd2, 0x3d, 0x60, 0x09, 0x21, 0x3e, 0x14, 0x71, 0x4d, 0xbc,
    0x78, 0x67, 0xc1, 0xbd, 0x2e, 0x05, 0xc6, 0xbd, 0xa7, 0x3f, 0x73, 0x3d,
    0x5b, 0xba, 0x26, 0xbe, 0x7c, 0x79, 0xdb, 0x3d, 0x43, 0x79, 0x84, 0x3e,
    0xa2, 0x91, 0xdd, 0xbd, 0x0d, 0xc4, 0xc8, 0x3e, 0x4f, 0x31, 0xbb, 0xbc,
    0xee, 0xd6, 0x32, 0x3e, 0xd2, 0x03, 0x05, 0xbe, 0xad, 0x5d, 0xc6, 0x3d,
    0x54, 0x6f, 0x61, 0xbd, 0xd4, 0x6a, 0x2f, 0x3b, 0xb4, 0xea, 0xc7, 0xbe,
    0x93, 0xff, 0x03, 0xbe, 0x1c, 0xbd, 0x99, 0x3d, 0xdf, 0x1d, 0xa3, 0x3e,
    0x5a, 0x1a, 0x8b, 0xbe, 0x65, 0x45, 0xd7, 0x3e, 0x3c, 0xe0, 0x93, 0xbd,
    0x82, 0x3f, 0xe0, 0xbb, 0x17, 0x70, 0x73, 0xbe, 0x67, 0x54, 0x2a, 0x3d,
    0xc5, 0x8e, 0x49, 0xbd, 0xeb, 0x10, 0x91, 0x3e, 0xa3, 0xc9, 0x75, 0x3e,
    0x88, 0xf1, 0x52, 0xbe, 0x0c, 0x52, 0xe6, 0x3d, 0x08, 0x13, 0xac, 0x3e,
    0x36, 0xde, 0x13, 0x3f, 0xf4, 0x13, 0xfd, 0x3d, 0xac, 0x22, 0x48, 0x3e,
    0x75, 0x0c, 0x3e, 0xbe, 0x1c, 0xdc, 0x87, 0x3d, 0x74, 0x93, 0x6e, 0xbd,
    0x99, 0x49, 0x60, 0x3f, 0x0e, 0x7a, 0x59, 0x3e, 0xd8, 0x5a, 0xf0, 0x3e,
    0xdf, 0x84, 0xf2, 0xbd, 0x08, 0x76, 0x83, 0x3e, 0xf4, 0xae, 0x89, 0x3e,
    0x86, 0xa4, 0x2b, 0x3f, 0x79, 0xee, 0x29, 0x3b, 0x8b, 0x64, 0xd1, 0x3d,
    0x98, 0xc6, 0x2b, 0xbe, 0x3b, 0x9d, 0x82, 0xbe, 0xa3, 0x9e, 0x78, 0xbe,
    0x34, 0xae, 0xe7, 0x3e, 0xb8, 0x14, 0x64, 0xbe, 0x83, 0xeb, 0xaf, 0x3e,
    0x07, 0x92, 0x6f, 0xbe, 0xa0, 0x14, 0x7e, 0x3e, 0xfb, 0x9d, 0x05, 0x3e,
    0xd5, 0xd5, 0x22, 0x3f, 0x19, 0x42, 0xbf, 0xbd, 0x48, 0x3c, 0x9f, 0x3e,
    0x99, 0xbb, 0x30, 0xbd, 0x5c, 0x79, 0x52, 0x3e, 0x12, 0x22, 0x4c, 0xbe,
    0x63, 0xab, 0x0d, 0x3f, 0x7f, 0x91, 0x38, 0xbe, 0x8a, 0x10, 0xf5, 0x3e,
    0x30, 0xb3, 0x18, 0xbe, 0x16, 0x0c, 0x1a, 0x3e, 0x4d, 0x5d, 0xb7, 0xbe,
    0x53, 0xb5, 0xe4, 0x3e, 0xe3, 0x34, 0x8e, 0xbe, 0x0a, 0x0e, 0xe3, 0x3e,
    0x97, 0x05, 0x30, 0x3e, 0xdc, 0x4c, 0x16, 0xbe, 0x96, 0xe6, 0xb3, 0xbd,
    0xcb, 0x4d, 0xf9, 0x3e, 0xe0, 0xd4, 0xbb, 0xbe, 0x4d, 0x75, 0xb8, 0x3e,
    0x08, 0x9c, 0x00, 0x3e, 0x00, 0xba, 0x44, 0x3d, 0x4d, 0x5c, 0x44, 0xbe,
    0xa4, 0xd6, 0xba, 0x3e, 0x55, 0xb8, 0xf7, 0xbe, 0x16, 0x0b, 0x1c, 0x3e,
    0xd1, 0x39, 0x45, 0xbd, 0xb0, 0x02, 0x38, 0x3d, 0x0b, 0xba, 0x8b, 0xbe,
    0x24, 0x59, 0xb5, 0x3e, 0xf9, 0x34, 0xb4, 0xbe, 0x3a, 0xab, 0xcd, 0x3e,
    0x78, 0x69, 0x00, 0xbe, 0x4a, 0xcc, 0x5f, 0x3e, 0x72, 0x16, 0x3a, 0xbd,
    0x5c, 0x41, 0xd3, 0x3e, 0xb7, 0x65, 0x1a, 0xbe, 0x89, 0x19, 0xed, 0x3e,
    0x12, 0x00, 0xa4, 0x3c, 0x10, 0x5c, 0xa5, 0x3c, 0x36, 0xe0, 0xc9, 0xbe,
    0x02, 0x46, 0x40, 0x3d, 0x1b, 0xc0, 0x4a, 0x3e, 0x57, 0x6c, 0xda, 0x3d,
    0x5d, 0xc3, 0x56, 0xbd, 0xbd, 0xcc, 0x42, 0xbe, 0xe5, 0xd0, 0x9c, 0x3e,
    0xdc, 0x6d, 0x15, 0xbd, 0xed, 0x1b, 0xc7, 0xbc, 0x5a, 0x9b, 0x45, 0x3e,
    0x40, 0xde, 0x71, 0xbc, 0x20, 0x0c, 0xff, 0x3c, 0x05, 0xdd, 0x44, 0xbe,
    0x6f, 0xee, 0x6b, 0xbe, 0x85, 0x42, 0x8a, 0xbc, 0xe3, 0x43, 0x16, 0x3f,
    0x88, 0xc8, 0xfa, 0xbd, 0xd6, 0xe5, 0x46, 0x3e, 0xeb, 0xbf, 0x79, 0xbd,
    0xa0, 0x48, 0x48, 0x3d, 0x4f, 0xe7, 0xb2, 0x3e, 0x3a, 0x1f, 0xd9, 0x3e,
    0x48, 0xb3, 0x49, 0xbd, 0x2e, 0x63, 0x1f, 0x3e, 0xcf, 0xa0, 0xa9, 0x3e,
    0x1c, 0x5d, 0x75, 0x3e, 0x5f, 0x8a, 0x8d, 0x3e, 0xf4, 0x0b, 0xb5, 0x3e,
    0xd7, 0xd6, 0xdd, 0x3d, 0x34, 0x28, 0x08, 0x3e, 0xfd, 0x92, 0x69, 0x3e,
    0xd7, 0x3d, 0x8b, 0xbd, 0x1e, 0x4d, 0x26, 0xbd, 0x56, 0x2c, 0x03, 0x3f,
    0xe0, 0x18, 0x0f, 0x3e, 0x0e, 0x24, 0xbe, 0xbd, 0x8b, 0x3d, 0x6e, 0x3e,
    0x6b, 0x55, 0x74, 0x3c, 0x4e, 0xfe, 0xff, 0xff, 0x04, 0x00, 0x00, 0x00,
    0xd8, 0x00, 0x00, 0x00, 0x7f, 0xb8, 0xe5, 0x3e, 0x80, 0x34, 0x1e, 0x3f,
    0x4c, 0xa6, 0x0f, 0x3f, 0x66, 0x7a, 0xc6, 0x3d, 0x5d, 0x8a, 0xc6, 0x3e,
    0xeb, 0x0d, 0x7b, 0x3e, 0x3a, 0xe2, 0x63, 0x3e, 0xec, 0x6f, 0x39, 0x3d,
    0x89, 0x58, 0xc8, 0x3d, 0xbc, 0x25, 0x74, 0xbe, 0xad, 0x34, 0xae, 0xbd,
    0x66, 0x29, 0x81, 0xbd, 0x8f, 0x11, 0x80, 0xbe, 0xe9, 0xd3, 0x69, 0x3e,
    0xb6, 0x6c, 0xa1, 0x3c, 0x1b, 0xcd, 0x05, 0xbd, 0x77, 0xfd, 0x22, 0x3e,
    0xd2, 0x36, 0x0a, 0x3e, 0x85, 0xec, 0x41, 0x3c, 0x66, 0x88, 0x7f, 0xbd,
    0x56, 0x81, 0x8c, 0xbe, 0xa9, 0x74, 0x06, 0x3e, 0x45, 0x14, 0x3b, 0xbe,
    0x7e, 0x36, 0x62, 0xbe, 0x1e, 0xef, 0x22, 0xbe, 0xd7, 0xc0, 0x4a, 0xbe,
    0xd6, 0x2f, 0x30, 0x3e, 0xf8, 0xd9, 0x80, 0xbd, 0x17, 0xa1, 0x19, 0xbe,
    0xd0, 0x8f, 0x4b, 0xbe, 0x58, 0x8d, 0x65, 0xbd, 0x2c, 0x5a, 0x39, 0xbe,
    0x14, 0xb5, 0xe6, 0xbd, 0x88, 0xf6, 0xe7, 0xbd, 0x7a, 0x06, 0x9c, 0xbe,
    0xf5, 0xd2, 0x9b, 0xbe, 0x6e, 0x4a, 0xc3, 0x3e, 0x23, 0xed, 0x03, 0x3f,
    0x1a, 0xda, 0x1e, 0x3f, 0x02, 0x7d, 0xc1, 0x3e, 0x34, 0x96, 0x94, 0x3e,
    0x1c, 0x16, 0xca, 0x3b, 0x0b, 0x5e, 0xbc, 0xbc, 0xce, 0x67, 0xba, 0x3e,
    0x6c, 0xcf, 0x7c, 0x3e, 0x06, 0x0c, 0xb5, 0x3e, 0x12, 0x8f, 0x9f, 0x3e,
    0x55, 0x07, 0xc2, 0xbd, 0x55, 0x0d, 0x69, 0xbe, 0x2f, 0xf1, 0x5e, 0xbe,
    0x9f, 0x91, 0xbb, 0x3d, 0x58, 0x06, 0x4b, 0xbd, 0x91, 0x2e, 0xa2, 0xbe,
    0xde, 0xd9, 0x48, 0xbe, 0x32, 0xff, 0xff, 0xff, 0x04, 0x00, 0x00, 0x00,
    0x0c, 0x00, 0x00, 0x00, 0x91, 0x38, 0xa6, 0xbd, 0x22, 0x9a, 0x56, 0x3e,
    0x32, 0x18, 0x37, 0x3e, 0x4a, 0xff, 0xff, 0xff, 0x04, 0x00, 0x00, 0x00,
    0x18, 0x00, 0x00, 0x00, 0xe4, 0x6c, 0x2d, 0xbe, 0x2b, 0xc6, 0x81, 0x3e,
    0x03, 0x8d, 0xf2, 0xbc, 0x00, 0x00, 0x00, 0x00, 0xee, 0x77, 0x33, 0xbe,
    0xbe, 0x76, 0x97, 0x3e, 0xe4, 0xf6, 0xff, 0xff, 0xe8, 0xf6, 0xff, 0xff,
    0x0f, 0x00, 0x00, 0x00, 0x4d, 0x4c, 0x49, 0x52, 0x20, 0x43, 0x6f, 0x6e,
    0x76, 0x65, 0x72, 0x74, 0x65, 0x64, 0x2e, 0x00, 0x01, 0x00, 0x00, 0x00,
    0x14, 0x00, 0x00, 0x00, 0x00, 0x00, 0x0e, 0x00, 0x18, 0x00, 0x14, 0x00,
    0x10, 0x00, 0x0c, 0x00, 0x08, 0x00, 0x04, 0x00, 0x0e, 0x00, 0x00, 0x00,
    0x14, 0x00, 0x00, 0x00, 0x1c, 0x00, 0x00, 0x00, 0x10, 0x02, 0x00, 0x00,
    0x14, 0x02, 0x00, 0x00, 0x18, 0x02, 0x00, 0x00, 0x04, 0x00, 0x00, 0x00,
    0x6d, 0x61, 0x69, 0x6e, 0x00, 0x00, 0x00, 0x00, 0x07, 0x00, 0x00, 0x00,
    0xa8, 0x01, 0x00, 0x00, 0x44, 0x01, 0x00, 0x00, 0xf0, 0x00, 0x00, 0x00,
    0xac, 0x00, 0x00, 0x00, 0x84, 0x00, 0x00, 0x00, 0x40, 0x00, 0x00, 0x00,
    0x04, 0x00, 0x00, 0x00, 0xe2, 0xfe, 0xff, 0xff, 0x1c, 0x00, 0x00, 0x00,
    0x00, 0x00, 0x00, 0x09, 0x1c, 0x00, 0x00, 0x00, 0x20, 0x00, 0x00, 0x00,
    0x04, 0x00, 0x00, 0x00, 0x00, 0x00, 0x06, 0x00, 0x08, 0x00, 0x04, 0x00,
    0x06, 0x00, 0x00, 0x00, 0x00, 0x00, 0x80, 0x3f, 0x01, 0x00, 0x00, 0x00,
    0x0e, 0x00, 0x00, 0x00, 0x01, 0x00, 0x00, 0x00, 0x0d, 0x00, 0x00, 0x00,
    0x1a, 0xff, 0xff, 0xff, 0x14, 0x00, 0x00, 0x00, 0x00, 0x00, 0x00, 0x08,
    0x10, 0x00, 0x00, 0x00, 0x14, 0x00, 0x00, 0x00, 0x03, 0x00, 0x00, 0x00,
    0xac, 0xf7, 0xff, 0xff, 0x01, 0x00, 0x00, 0x00, 0x0d, 0x00, 0x00, 0x00,
    0x03, 0x00, 0x00, 0x00, 0x0c, 0x00, 0x00, 0x00, 0x07, 0x00, 0x00, 0x00,
    0x05, 0x00, 0x00, 0x00, 0x00, 0x00, 0x0a, 0x00, 0x10, 0x00, 0x0c, 0x00,
    0x08, 0x00, 0x04, 0x00, 0x0a, 0x00, 0x00, 0x00, 0x0c, 0x00, 0x00, 0x00,
    0x10, 0x00, 0x00, 0x00, 0x02, 0x00, 0x00, 0x00, 0x01, 0x00, 0x00, 0x00,
    0x0c, 0x00, 0x00, 0x00, 0x02, 0x00, 0x00, 0x00, 0x0b, 0x00, 0x00, 0x00,
    0x06, 0x00, 0x00, 0x00, 0x7e, 0xff, 0xff, 0xff, 0x14, 0x00, 0x00, 0x00,
    0x00, 0x00, 0x00, 0x05, 0x24, 0x00, 0x00, 0x00, 0x28, 0x00, 0x00, 0x00,
    0x01, 0x00, 0x00, 0x00, 0x6e, 0xff, 0xff, 0xff, 0x02, 0x00, 0x00, 0x00,
    0x02, 0x00, 0x00, 0x00, 0x02, 0x00, 0x00, 0x00, 0x02, 0x00, 0x00, 0x00,
    0x00, 0x00, 0x00, 0x01, 0x01, 0x00, 0x00, 0x00, 0x0b, 0x00, 0x00, 0x00,
    0x01, 0x00, 0x00, 0x00, 0x0a, 0x00, 0x00, 0x00, 0x5e, 0xff, 0xff, 0xff,
    0x10, 0x00, 0x00, 0x00, 0x00, 0x00, 0x00, 0x01, 0x1c, 0x00, 0x00, 0x00,
    0x20, 0x00, 0x00, 0x00, 0x50, 0xff, 0xff, 0xff, 0x00, 0x00, 0x00, 0x01,
    0x01, 0x00, 0x00, 0x00, 0x01, 0x00, 0x00, 0x00, 0x00, 0x00, 0x00, 0x01,
    0x01, 0x00, 0x00, 0x00, 0x0a, 0x00, 0x00, 0x00, 0x03, 0x00, 0x00, 0x00,
    0x09, 0x00, 0x00, 0x00, 0x04, 0x00, 0x00, 0x00, 0x02, 0x00, 0x00, 0x00,
    0x00, 0x00, 0x0e, 0x00, 0x1a, 0x00, 0x14, 0x00, 0x10, 0x00, 0x0c, 0x00,
    0x0b, 0x00, 0x04, 0x00, 0x0e, 0x00, 0x00, 0x00, 0x24, 0x00, 0x00, 0x00,
    0x00, 0x00, 0x00, 0x05, 0x34, 0x00, 0x00, 0x00, 0x38, 0x00, 0x00, 0x00,
    0x01, 0x00, 0x00, 0x00, 0x00, 0x00, 0x0e, 0x00, 0x18, 0x00, 0x17, 0x00,
    0x10, 0x00, 0x0c, 0x00, 0x08, 0x00, 0x04, 0x00, 0x0e, 0x00, 0x00, 0x00,
    0x02, 0x00, 0x00, 0x00, 0x02, 0x00, 0x00, 0x00, 0x02, 0x00, 0x00, 0x00,
    0x02, 0x00, 0x00, 0x00, 0x00, 0x00, 0x00, 0x01, 0x01, 0x00, 0x00, 0x00,
    0x09, 0x00, 0x00, 0x00, 0x01, 0x00, 0x00, 0x00, 0x08, 0x00, 0x00, 0x00,
    0x00, 0x00, 0x0e, 0x00, 0x14, 0x00, 0x00, 0x00, 0x10, 0x00, 0x0c, 0x00,
    0x0b, 0x00, 0x04, 0x00, 0x0e, 0x00, 0x00, 0x00, 0x1c, 0x00, 0x00, 0x00,
    0x00, 0x00, 0x00, 0x01, 0x28, 0x00, 0x00, 0x00, 0x2c, 0x00, 0x00, 0x00,
    0x0c, 0x00, 0x14, 0x00, 0x13, 0x00, 0x0c, 0x00, 0x08, 0x00, 0x07, 0x00,
    0x0c, 0x00, 0x00, 0x00, 0x00, 0x00, 0x00, 0x01, 0x01, 0x00, 0x00, 0x00,
    0x01, 0x00, 0x00, 0x00, 0x00, 0x00, 0x00, 0x01, 0x01, 0x00, 0x00, 0x00,
    0x08, 0x00, 0x00, 0x00, 0x03, 0x00, 0x00, 0x00, 0x00, 0x00, 0x00, 0x00,
    0x03, 0x00, 0x00, 0x00, 0x01, 0x00, 0x00, 0x00, 0x01, 0x00, 0x00, 0x00,
    0x0e, 0x00, 0x00, 0x00, 0x01, 0x00, 0x00, 0x00, 0x00, 0x00, 0x00, 0x00,
    0x0f, 0x00, 0x00, 0x00, 0x88, 0x06, 0x00, 0x00, 0x14, 0x06, 0x00, 0x00,
    0xa0, 0x05, 0x00, 0x00, 0x48, 0x05, 0x00, 0x00, 0xf0, 0x04, 0x00, 0x00,
    0x94, 0x04, 0x00, 0x00, 0x44, 0x04, 0x00, 0x00, 0xdc, 0x03, 0x00, 0x00,
    0x04, 0x03, 0x00, 0x00, 0x8c, 0x02, 0x00, 0x00, 0xb4, 0x01, 0x00, 0x00,
    0x3c, 0x01, 0x00, 0x00, 0xdc, 0x00, 0x00, 0x00, 0x60, 0x00, 0x00, 0x00,
    0x04, 0x00, 0x00, 0x00, 0xca, 0xf9, 0xff, 0xff, 0x00, 0x00, 0x00, 0x01,
    0x14, 0x00, 0x00, 0x00, 0x1c, 0x00, 0x00, 0x00, 0x1c, 0x00, 0x00, 0x00,
    0x0f, 0x00, 0x00, 0x00, 0x34, 0x00, 0x00, 0x00, 0x02, 0x00, 0x00, 0x00,
    0xff, 0xff, 0xff, 0xff, 0x04, 0x00, 0x00, 0x00, 0xac, 0xf9, 0xff, 0xff,
    0x19, 0x00, 0x00, 0x00, 0x53, 0x74, 0x61, 0x74, 0x65, 0x66, 0x75, 0x6c,
    0x50, 0x61, 0x72, 0x74, 0x69, 0x74, 0x69, 0x6f, 0x6e, 0x65, 0x64, 0x43,
    0x61, 0x6c, 0x6c, 0x3a, 0x30, 0x00, 0x00, 0x00, 0x02, 0x00, 0x00, 0x00,
    0x01, 0x00, 0x00, 0x00, 0x04, 0x00, 0x00, 0x00, 0x22, 0xfa, 0xff, 0xff,
    0x00, 0x00, 0x00, 0x01, 0x14, 0x00, 0x00, 0x00, 0x1c, 0x00, 0x00, 0x00,
    0x1c, 0x00, 0x00, 0x00, 0x0e, 0x00, 0x00, 0x00, 0x54, 0x00, 0x00, 0x00,
    0x02, 0x00, 0x00, 0x00, 0xff, 0xff, 0xff, 0xff, 0x04, 0x00, 0x00, 0x00,
    0x04, 0xfa, 0xff, 0xff, 0x3a, 0x00, 0x00, 0x00, 0x73, 0x65, 0x71, 0x75,
    0x65, 0x6e, 0x74, 0x69, 0x61, 0x6c, 0x5f, 0x37, 0x2f, 0x64, 0x65, 0x6e,
    0x73, 0x65, 0x5f, 0x31, 0x32, 0x2f, 0x4d, 0x61, 0x74, 0x4d, 0x75, 0x6c,
    0x3b, 0x73, 0x65, 0x71, 0x75, 0x65, 0x6e, 0x74, 0x69, 0x61, 0x6c, 0x5f,
    0x37, 0x2f, 0x64, 0x65, 0x6e, 0x73, 0x65, 0x5f, 0x31, 0x32, 0x2f, 0x42,
    0x69, 0x61, 0x73, 0x41, 0x64, 0x64, 0x00, 0x00, 0x02, 0x00, 0x00, 0x00,
    0x01, 0x00, 0x00, 0x00, 0x04, 0x00, 0x00, 0x00, 0x9a, 0xfa, 0xff, 0xff,
    0x00, 0x00, 0x00, 0x01, 0x14, 0x00, 0x00, 0x00, 0x1c, 0x00, 0x00, 0x00,
    0x1c, 0x00, 0x00, 0x00, 0x0d, 0x00, 0x00, 0x00, 0x38, 0x00, 0x00, 0x00,
    0x02, 0x00, 0x00, 0x00, 0xff, 0xff, 0xff, 0xff, 0x90, 0x00, 0x00, 0x00,
    0x7c, 0xfa, 0xff, 0xff, 0x1e, 0x00, 0x00, 0x00, 0x73, 0x65, 0x71, 0x75,
    0x65, 0x6e, 0x74, 0x69, 0x61, 0x6c, 0x5f, 0x37, 0x2f, 0x66, 0x6c, 0x61,
    0x74, 0x74, 0x65, 0x6e, 0x5f, 0x37, 0x2f, 0x52, 0x65, 0x73, 0x68, 0x61,
    0x70, 0x65, 0x00, 0x00, 0x02, 0x00, 0x00, 0x00, 0x01, 0x00, 0x00, 0x00,
    0x90, 0x00, 0x00, 0x00, 0xf6, 0xfa, 0xff, 0xff, 0x00, 0x00, 0x00, 0x01,
    0x14, 0x00, 0x00, 0x00, 0x24, 0x00, 0x00, 0x00, 0x24, 0x00, 0x00, 0x00,
    0x0c, 0x00, 0x00, 0x00, 0x48, 0x00, 0x00, 0x00, 0x04, 0x00, 0x00, 0x00,
    0xff, 0xff, 0xff, 0xff, 0x06, 0x00, 0x00, 0x00, 0x08, 0x00, 0x00, 0x00,
    0x03, 0x00, 0x00, 0x00, 0xe0, 0xfa, 0xff, 0xff, 0x25, 0x00, 0x00, 0x00,
    0x73, 0x65, 0x71, 0x75, 0x65, 0x6e, 0x74, 0x69, 0x61, 0x6c, 0x5f, 0x37,
    0x2f, 0x6d, 0x61, 0x78, 0x5f, 0x70, 0x6f, 0x6f, 0x6c, 0x69, 0x6e, 0x67,
    0x32, 0x64, 0x5f, 0x31, 0x35, 0x2f, 0x4d, 0x61, 0x78, 0x50, 0x6f, 0x6f,
    0x6c, 0x00, 0x00, 0x00, 0x04, 0x00, 0x00, 0x00, 0x01, 0x00, 0x00, 0x00,
    0x06, 0x00, 0x00, 0x00, 0x08, 0x00, 0x00, 0x00, 0x03, 0x00, 0x00, 0x00,
    0x6a, 0xfb, 0xff, 0xff, 0x00, 0x00, 0x00, 0x01, 0x14, 0x00, 0x00, 0x00,
    0x24, 0x00, 0x00, 0x00, 0x24, 0x00, 0x00, 0x00, 0x0b, 0x00, 0x00, 0x00,
    0xa8, 0x00, 0x00, 0x00, 0x04, 0x00, 0x00, 0x00, 0xff, 0xff, 0xff, 0xff,
    0x0c, 0x00, 0x00, 0x00, 0x11, 0x00, 0x00, 0x00, 0x03, 0x00, 0x00, 0x00,
    0x54, 0xfb, 0xff, 0xff, 0x86, 0x00, 0x00, 0x00, 0x73, 0x65, 0x71, 0x75,
    0x65, 0x6e, 0x74, 0x69, 0x61, 0x6c, 0x5f, 0x37, 0x2f, 0x63, 0x6f, 0x6e,
    0x76, 0x32, 0x64, 0x5f, 0x31, 0x35, 0x2f, 0x52, 0x65, 0x6c, 0x75, 0x3b,
    0x73, 0x65, 0x71, 0x75, 0x65, 0x6e, 0x74, 0x69, 0x61, 0x6c, 0x5f, 0x37,
    0x2f, 0x63, 0x6f, 0x6e, 0x76, 0x32, 0x64, 0x5f, 0x31, 0x35, 0x2f, 0x42,
    0x69, 0x61, 0x73, 0x41, 0x64, 0x64, 0x3b, 0x73, 0x65, 0x71, 0x75, 0x65,
    0x6e, 0x74, 0x69, 0x61, 0x6c, 0x5f, 0x37, 0x2f, 0x63, 0x6f, 0x6e, 0x76,
    0x32, 0x64, 0x5f, 0x31, 0x35, 0x2f, 0x43, 0x6f, 0x6e, 0x76, 0x32, 0x44,
    0x3b, 0x73, 0x65, 0x71, 0x75, 0x65, 0x6e, 0x74, 0x69, 0x61, 0x6c, 0x5f,
    0x37, 0x2f, 0x63, 0x6f, 0x6e, 0x76, 0x32, 0x64, 0x5f, 0x31, 0x35, 0x2f,
    0x42, 0x69, 0x61, 0x73, 0x41, 0x64, 0x64, 0x2f, 0x52, 0x65, 0x61, 0x64,
    0x56, 0x61, 0x72, 0x69, 0x61, 0x62, 0x6c, 0x65, 0x4f, 0x70, 0x00, 0x00,
    0x04, 0x00, 0x00, 0x00, 0x01, 0x00, 0x00, 0x00, 0x0c, 0x00, 0x00, 0x00,
    0x11, 0x00, 0x00, 0x00, 0x03, 0x00, 0x00, 0x00, 0x3e, 0xfc, 0xff, 0xff,
    0x00, 0x00, 0x00, 0x01, 0x14, 0x00, 0x00, 0x00, 0x24, 0x00, 0x00, 0x00,
    0x24, 0x00, 0x00, 0x00, 0x0a, 0x00, 0x00, 0x00, 0x48, 0x00, 0x00, 0x00,
    0x04, 0x00, 0x00, 0x00, 0xff, 0xff, 0xff, 0xff, 0x0e, 0x00, 0x00, 0x00,
    0x13, 0x00, 0x00, 0x00, 0x06, 0x00, 0x00, 0x00, 0x28, 0xfc, 0xff, 0xff,
    0x25, 0x00, 0x00, 0x00, 0x73, 0x65, 0x71, 0x75, 0x65, 0x6e, 0x74, 0x69,
    0x61, 0x6c, 0x5f, 0x37, 0x2f, 0x6d, 0x61, 0x78, 0x5f, 0x70, 0x6f, 0x6f,
    0x6c, 0x69, 0x6e, 0x67, 0x32, 0x64, 0x5f, 0x31, 0x34, 0x2f, 0x4d, 0x61,
    0x78, 0x50, 0x6f, 0x6f, 0x6c, 0x00, 0x00, 0x00, 0x04, 0x00, 0x00, 0x00,
    0x01, 0x00, 0x00, 0x00, 0x0e, 0x00, 0x00, 0x00, 0x13, 0x00, 0x00, 0x00,
    0x06, 0x00, 0x00, 0x00, 0xb2, 0xfc, 0xff, 0xff, 0x00, 0x00, 0x00, 0x01,
    0x14, 0x00, 0x00, 0x00, 0x24, 0x00, 0x00, 0x00, 0x24, 0x00, 0x00, 0x00,
    0x09, 0x00, 0x00, 0x00, 0xa8, 0x00, 0x00, 0x00, 0x04, 0x00, 0x00, 0x00,
    0xff, 0xff, 0xff, 0xff, 0x1c, 0x00, 0x00, 0x00, 0x26, 0x00, 0x00, 0x00,
    0x06, 0x00, 0x00, 0x00, 0x9c, 0xfc, 0xff, 0xff, 0x86, 0x00, 0x00, 0x00,
    0x73, 0x65, 0x71, 0x75, 0x65, 0x6e, 0x74, 0x69, 0x61, 0x6c, 0x5f, 0x37,
    0x2f, 0x63, 0x6f, 0x6e, 0x76, 0x32, 0x64, 0x5f, 0x31, 0x34, 0x2f, 0x52,
    0x65, 0x6c, 0x75, 0x3b, 0x73, 0x65, 0x71, 0x75, 0x65, 0x6e, 0x74, 0x69,
    0x61, 0x6c, 0x5f, 0x37, 0x2f, 0x63, 0x6f, 0x6e, 0x76, 0x32, 0x64, 0x5f,
    0x31, 0x34, 0x2f, 0x42, 0x69, 0x61, 0x73, 0x41, 0x64, 0x64, 0x3b, 0x73,
    0x65, 0x71, 0x75, 0x65, 0x6e, 0x74, 0x69, 0x61, 0x6c, 0x5f, 0x37, 0x2f,
    0x63, 0x6f, 0x6e, 0x76, 0x32, 0x64, 0x5f, 0x31, 0x34, 0x2f, 0x43, 0x6f,
    0x6e, 0x76, 0x32, 0x44, 0x3b, 0x73, 0x65, 0x71, 0x75, 0x65, 0x6e, 0x74,
    0x69, 0x61, 0x6c, 0x5f, 0x37, 0x2f, 0x63, 0x6f, 0x6e, 0x76, 0x32, 0x64,
    0x5f, 0x31, 0x34, 0x2f, 0x42, 0x69, 0x61, 0x73, 0x41, 0x64, 0x64, 0x2f,
    0x52, 0x65, 0x61, 0x64, 0x56, 0x61, 0x72, 0x69, 0x61, 0x62, 0x6c, 0x65,
    0x4f, 0x70, 0x00, 0x00, 0x04, 0x00, 0x00, 0x00, 0x01, 0x00, 0x00, 0x00,
    0x1c, 0x00, 0x00, 0x00, 0x26, 0x00, 0x00, 0x00, 0x06, 0x00, 0x00, 0x00,
    0xf6, 0xfd, 0xff, 0xff, 0x00, 0x00, 0x00, 0x01, 0x10, 0x00, 0x00, 0x00,
    0x10, 0x00, 0x00, 0x00, 0x08, 0x00, 0x00, 0x00, 0x2c, 0x00, 0x00, 0x00,
    0x58, 0xfd, 0xff, 0xff, 0x1c, 0x00, 0x00, 0x00, 0x73, 0x65, 0x71, 0x75,
    0x65, 0x6e, 0x74, 0x69, 0x61, 0x6c, 0x5f, 0x37, 0x2f, 0x64, 0x65, 0x6e,
    0x73, 0x65, 0x5f, 0x31, 0x32, 0x2f, 0x4d, 0x61, 0x74, 0x4d, 0x75, 0x6c,
    0x00, 0x00, 0x00, 0x00, 0x02, 0x00, 0x00, 0x00, 0x04, 0x00, 0x00, 0x00,
    0x90, 0x00, 0x00, 0x00, 0x00, 0x00, 0x16, 0x00, 0x1c, 0x00, 0x18, 0x00,
    0x17, 0x00, 0x10, 0x00, 0x0c, 0x00, 0x08, 0x00, 0x00, 0x00, 0x00, 0x00,
    0x00, 0x00, 0x07, 0x00, 0x16, 0x00, 0x00, 0x00, 0x00, 0x00, 0x00, 0x01,
    0x14, 0x00, 0x00, 0x00, 0x14, 0x00, 0x00, 0x00, 0x07, 0x00, 0x00, 0x00,
    0x00, 0x00, 0x00, 0x02, 0x2c, 0x00, 0x00, 0x00, 0xc0, 0xfd, 0xff, 0xff,
    0x1c, 0x00, 0x00, 0x00, 0x73, 0x65, 0x71, 0x75, 0x65, 0x6e, 0x74, 0x69,
    0x61, 0x6c, 0x5f, 0x37, 0x2f, 0x66, 0x6c, 0x61, 0x74, 0x74, 0x65, 0x6e,
    0x5f, 0x37, 0x2f, 0x43, 0x6f, 0x6e, 0x73, 0x74, 0x00, 0x00, 0x00, 0x00,
    0x01, 0x00, 0x00, 0x00, 0x02, 0x00, 0x00, 0x00, 0xa6, 0xfe, 0xff, 0xff,
    0x00, 0x00, 0x00, 0x01, 0x10, 0x00, 0x00, 0x00, 0x10, 0x00, 0x00, 0x00,
    0x06, 0x00, 0x00, 0x00, 0x3c, 0x00, 0x00, 0x00, 0x08, 0xfe, 0xff, 0xff,
    0x2c, 0x00, 0x00, 0x00, 0x73, 0x65, 0x71, 0x75, 0x65, 0x6e, 0x74, 0x69,
    0x61, 0x6c, 0x5f, 0x37, 0x2f, 0x64, 0x65, 0x6e, 0x73, 0x65, 0x5f, 0x31,
    0x32, 0x2f, 0x42, 0x69, 0x61, 0x73, 0x41, 0x64, 0x64, 0x2f, 0x52, 0x65,
    0x61, 0x64, 0x56, 0x61, 0x72, 0x69, 0x61, 0x62, 0x6c, 0x65, 0x4f, 0x70,
    0x00, 0x00, 0x00, 0x00, 0x01, 0x00, 0x00, 0x00, 0x04, 0x00, 0x00, 0x00,
    0xfe, 0xfe, 0xff, 0xff, 0x00, 0x00, 0x00, 0x01, 0x10, 0x00, 0x00, 0x00,
    0x10, 0x00, 0x00, 0x00, 0x05, 0x00, 0x00, 0x00, 0x2c, 0x00, 0x00, 0x00,
    0x60, 0xfe, 0xff, 0xff, 0x1d, 0x00, 0x00, 0x00, 0x73, 0x65, 0x71, 0x75,
    0x65, 0x6e, 0x74, 0x69, 0x61, 0x6c, 0x5f, 0x37, 0x2f, 0x63, 0x6f, 0x6e,
    0x76, 0x32, 0x64, 0x5f, 0x31, 0x35, 0x2f, 0x43, 0x6f, 0x6e, 0x76, 0x32,
    0x44, 0x00, 0x00, 0x00, 0x04, 0x00, 0x00, 0x00, 0x03, 0x00, 0x00, 0x00,
    0x03, 0x00, 0x00, 0x00, 0x03, 0x00, 0x00, 0x00, 0x06, 0x00, 0x00, 0x00,
    0x52, 0xff, 0xff, 0xff, 0x00, 0x00, 0x00, 0x01, 0x10, 0x00, 0x00, 0x00,
    0x10, 0x00, 0x00, 0x00, 0x04, 0x00, 0x00, 0x00, 0x2c, 0x00, 0x00, 0x00,
    0xb4, 0xfe, 0xff, 0xff, 0x1d, 0x00, 0x00, 0x00, 0x73, 0x65, 0x71, 0x75,
    0x65, 0x6e, 0x74, 0x69, 0x61, 0x6c, 0x5f, 0x37, 0x2f, 0x63, 0x6f, 0x6e,
    0x76, 0x32, 0x64, 0x5f, 0x31, 0x34, 0x2f, 0x43, 0x6f, 0x6e, 0x76, 0x32,
    0x44, 0x00, 0x00, 0x00, 0x04, 0x00, 0x00, 0x00, 0x06, 0x00, 0x00, 0x00,
    0x03, 0x00, 0x00, 0x00, 0x03, 0x00, 0x00, 0x00, 0x01, 0x00, 0x00, 0x00,
    0xa6, 0xff, 0xff, 0xff, 0x00, 0x00, 0x00, 0x01, 0x10, 0x00, 0x00, 0x00,
    0x10, 0x00, 0x00, 0x00, 0x03, 0x00, 0x00, 0x00, 0x3c, 0x00, 0x00, 0x00,
    0x08, 0xff, 0xff, 0xff, 0x2d, 0x00, 0x00, 0x00, 0x73, 0x65, 0x71, 0x75,
    0x65, 0x6e, 0x74, 0x69, 0x61, 0x6c, 0x5f, 0x37, 0x2f, 0x63, 0x6f, 0x6e,
    0x76, 0x32, 0x64, 0x5f, 0x31, 0x35, 0x2f, 0x42, 0x69, 0x61, 0x73, 0x41,
    0x64, 0x64, 0x2f, 0x52, 0x65, 0x61, 0x64, 0x56, 0x61, 0x72, 0x69, 0x61,
    0x62, 0x6c, 0x65, 0x4f, 0x70, 0x00, 0x00, 0x00, 0x01, 0x00, 0x00, 0x00,
    0x03, 0x00, 0x00, 0x00, 0x00, 0x00, 0x16, 0x00, 0x18, 0x00, 0x14, 0x00,
    0x00, 0x00, 0x10, 0x00, 0x0c, 0x00, 0x08, 0x00, 0x00, 0x00, 0x00, 0x00,
    0x00, 0x00, 0x07, 0x00, 0x16, 0x00, 0x00, 0x00, 0x00, 0x00, 0x00, 0x01,
    0x10, 0x00, 0x00, 0x00, 0x10, 0x00, 0x00, 0x00, 0x02, 0x00, 0x00, 0x00,
    0x3c, 0x00, 0x00, 0x00, 0x78, 0xff, 0xff, 0xff, 0x2d, 0x00, 0x00, 0x00,
    0x73, 0x65, 0x71, 0x75, 0x65, 0x6e, 0x74, 0x69, 0x61, 0x6c, 0x5f, 0x37,
    0x2f, 0x63, 0x6f, 0x6e, 0x76, 0x32, 0x64, 0x5f, 0x31, 0x34, 0x2f, 0x42,
    0x69, 0x61, 0x73, 0x41, 0x64, 0x64, 0x2f, 0x52, 0x65, 0x61, 0x64, 0x56,
    0x61, 0x72, 0x69, 0x61, 0x62, 0x6c, 0x65, 0x4f, 0x70, 0x00, 0x00, 0x00,
    0x01, 0x00, 0x00, 0x00, 0x06, 0x00, 0x00, 0x00, 0x00, 0x00, 0x16, 0x00,
    0x1c, 0x00, 0x18, 0x00, 0x00, 0x00, 0x14, 0x00, 0x10, 0x00, 0x0c, 0x00,
    0x00, 0x00, 0x00, 0x00, 0x08, 0x00, 0x07, 0x00, 0x16, 0x00, 0x00, 0x00,
    0x00, 0x00, 0x00, 0x01, 0x14, 0x00, 0x00, 0x00, 0x28, 0x00, 0x00, 0x00,
    0x28, 0x00, 0x00, 0x00, 0x01, 0x00, 0x00, 0x00, 0x48, 0x00, 0x00, 0x00,
    0x04, 0x00, 0x00, 0x00, 0xff, 0xff, 0xff, 0xff, 0x1e, 0x00, 0x00, 0x00,
    0x28, 0x00, 0x00, 0x00, 0x01, 0x00, 0x00, 0x00, 0x04, 0x00, 0x04, 0x00,
    0x04, 0x00, 0x00, 0x00, 0x21, 0x00, 0x00, 0x00, 0x73, 0x65, 0x72, 0x76,
    0x69, 0x6e, 0x67, 0x5f, 0x64, 0x65, 0x66, 0x61, 0x75, 0x6c, 0x74, 0x5f,
    0x63, 0x6f, 0x6e, 0x76, 0x32, 0x64, 0x5f, 0x31, 0x34, 0x5f, 0x69, 0x6e,
    0x70, 0x75, 0x74, 0x3a, 0x30, 0x00, 0x00, 0x00, 0x04, 0x00, 0x00, 0x00,
    0x01, 0x00, 0x00, 0x00, 0x1e, 0x00, 0x00, 0x00, 0x28, 0x00, 0x00, 0x00,
    0x01, 0x00, 0x00, 0x00, 0x05, 0x00, 0x00, 0x00, 0x50, 0x00, 0x00, 0x00,
    0x34, 0x00, 0x00, 0x00, 0x24, 0x00, 0x00, 0x00, 0x14, 0x00, 0x00, 0x00,
    0x04, 0x00, 0x00, 0x00, 0xd0, 0xff, 0xff, 0xff, 0x19, 0x00, 0x00, 0x00,
    0x00, 0x00, 0x00, 0x19, 0xdc, 0xff, 0xff, 0xff, 0x09, 0x00, 0x00, 0x00,
    0x00, 0x00, 0x00, 0x09, 0xe8, 0xff, 0xff, 0xff, 0x16, 0x00, 0x00, 0x00,
    0x00, 0x00, 0x00, 0x16, 0xf4, 0xff, 0xff, 0xff, 0x11, 0x00, 0x00, 0x00,
    0x00, 0x00, 0x00, 0x11, 0x0c, 0x00, 0x0c, 0x00, 0x0b, 0x00, 0x00, 0x00,
    0x00, 0x00, 0x04, 0x00, 0x0c, 0x00, 0x00, 0x00, 0x03, 0x00, 0x00, 0x00,
    0x00, 0x00, 0x00, 0x03};
unsigned int floor_wetness_v13_tflite_len = 6304;
