unsigned char flower_model_tflite[] = {
    0x1c, 0x00, 0x00, 0x00, 0x54, 0x46, 0x4c, 0x33, 0x14, 0x00, 0x20, 0x00,
    0x1c, 0x00, 0x18, 0x00, 0x14, 0x00, 0x10, 0x00, 0x0c, 0x00, 0x00, 0x00,
    0x08, 0x00, 0x04, 0x00, 0x14, 0x00, 0x00, 0x00, 0x1c, 0x00, 0x00, 0x00,
    0x88, 0x00, 0x00, 0x00, 0xe0, 0x00, 0x00, 0x00, 0x2c, 0x0e, 0x00, 0x00,
    0x3c, 0x0e, 0x00, 0x00, 0xd8, 0x16, 0x00, 0x00, 0x03, 0x00, 0x00, 0x00,
    0x01, 0x00, 0x00, 0x00, 0x04, 0x00, 0x00, 0x00, 0x12, 0xf1, 0xff, 0xff,
    0x0c, 0x00, 0x00, 0x00, 0x1c, 0x00, 0x00, 0x00, 0x38, 0x00, 0x00, 0x00,
    0x0f, 0x00, 0x00, 0x00, 0x73, 0x65, 0x72, 0x76, 0x69, 0x6e, 0x67, 0x5f,
    0x64, 0x65, 0x66, 0x61, 0x75, 0x6c, 0x74, 0x00, 0x01, 0x00, 0x00, 0x00,
    0x04, 0x00, 0x00, 0x00, 0x94, 0xff, 0xff, 0xff, 0x0d, 0x00, 0x00, 0x00,
    0x04, 0x00, 0x00, 0x00, 0x07, 0x00, 0x00, 0x00, 0x64, 0x65, 0x6e, 0x73,
    0x65, 0x5f, 0x35, 0x00, 0x01, 0x00, 0x00, 0x00, 0x04, 0x00, 0x00, 0x00,
    0xb2, 0xf1, 0xff, 0xff, 0x04, 0x00, 0x00, 0x00, 0x0f, 0x00, 0x00, 0x00,
    0x63, 0x6f, 0x6e, 0x76, 0x32, 0x64, 0x5f, 0x31, 0x30, 0x5f, 0x69, 0x6e,
    0x70, 0x75, 0x74, 0x00, 0x02, 0x00, 0x00, 0x00, 0x34, 0x00, 0x00, 0x00,
    0x04, 0x00, 0x00, 0x00, 0xdc, 0xff, 0xff, 0xff, 0x10, 0x00, 0x00, 0x00,
    0x04, 0x00, 0x00, 0x00, 0x13, 0x00, 0x00, 0x00, 0x43, 0x4f, 0x4e, 0x56,
    0x45, 0x52, 0x53, 0x49, 0x4f, 0x4e, 0x5f, 0x4d, 0x45, 0x54, 0x41, 0x44,
    0x41, 0x54, 0x41, 0x00, 0x08, 0x00, 0x0c, 0x00, 0x08, 0x00, 0x04, 0x00,
    0x08, 0x00, 0x00, 0x00, 0x0f, 0x00, 0x00, 0x00, 0x04, 0x00, 0x00, 0x00,
    0x13, 0x00, 0x00, 0x00, 0x6d, 0x69, 0x6e, 0x5f, 0x72, 0x75, 0x6e, 0x74,
    0x69, 0x6d, 0x65, 0x5f, 0x76, 0x65, 0x72, 0x73, 0x69, 0x6f, 0x6e, 0x00,
    0x11, 0x00, 0x00, 0x00, 0x48, 0x0d, 0x00, 0x00, 0x40, 0x0d, 0x00, 0x00,
    0x28, 0x0d, 0x00, 0x00, 0x10, 0x0d, 0x00, 0x00, 0x28, 0x0c, 0x00, 0x00,
    0x88, 0x0b, 0x00, 0x00, 0x70, 0x0b, 0x00, 0x00, 0x58, 0x0b, 0x00, 0x00,
    0xb8, 0x00, 0x00, 0x00, 0xb0, 0x00, 0x00, 0x00, 0xa8, 0x00, 0x00, 0x00,
    0xa0, 0x00, 0x00, 0x00, 0x98, 0x00, 0x00, 0x00, 0x90, 0x00, 0x00, 0x00,
    0x88, 0x00, 0x00, 0x00, 0x68, 0x00, 0x00, 0x00, 0x04, 0x00, 0x00, 0x00,
    0x72, 0xf2, 0xff, 0xff, 0x04, 0x00, 0x00, 0x00, 0x54, 0x00, 0x00, 0x00,
    0x0c, 0x00, 0x00, 0x00, 0x08, 0x00, 0x0e, 0x00, 0x08, 0x00, 0x04, 0x00,
    0x08, 0x00, 0x00, 0x00, 0x10, 0x00, 0x00, 0x00, 0x24, 0x00, 0x00, 0x00,
    0x00, 0x00, 0x06, 0x00, 0x08, 0x00, 0x04, 0x00, 0x06, 0x00, 0x00, 0x00,
    0x04, 0x00, 0x00, 0x00, 0x00, 0x00, 0x00, 0x00, 0x00, 0x00, 0x0a, 0x00,
    0x10, 0x00, 0x0c, 0x00, 0x08, 0x00, 0x04, 0x00, 0x0a, 0x00, 0x00, 0x00,
    0x02, 0x00, 0x00, 0x00, 0x02, 0x00, 0x00, 0x00, 0x04, 0x00, 0x00, 0x00,
    0x06, 0x00, 0x00, 0x00, 0x32, 0x2e, 0x31, 0x30, 0x2e, 0x30, 0x00, 0x00,
    0xd2, 0xf2, 0xff, 0xff, 0x04, 0x00, 0x00, 0x00, 0x10, 0x00, 0x00, 0x00,
    0x31, 0x2e, 0x35, 0x2e, 0x30, 0x00, 0x00, 0x00, 0x00, 0x00, 0x00, 0x00,
    0x00, 0x00, 0x00, 0x00, 0x04, 0xeb, 0xff, 0xff, 0x08, 0xeb, 0xff, 0xff,
    0x0c, 0xeb, 0xff, 0xff, 0x10, 0xeb, 0xff, 0xff, 0x14, 0xeb, 0xff, 0xff,
    0x18, 0xeb, 0xff, 0xff, 0x06, 0xf3, 0xff, 0xff, 0x04, 0x00, 0x00, 0x00,
    0x90, 0x0a, 0x00, 0x00, 0xde, 0x32, 0x54, 0x3d, 0x9a, 0x3a, 0x0e, 0xbe,
    0x09, 0x4e, 0x42, 0x3d, 0xa8, 0x18, 0xeb, 0xbd, 0x94, 0x5b, 0x14, 0x3d,
    0xfa, 0x3a, 0x69, 0xbd, 0xfd, 0x68, 0x16, 0x3c, 0x88, 0x44, 0xbe, 0xbd,
    0xa0, 0xfa, 0x40, 0xbe, 0xe6, 0x4c, 0x86, 0xbe, 0x22, 0xcb, 0x2b, 0xbe,
    0x51, 0x91, 0x27, 0xbc, 0xd0, 0x6b, 0xd2, 0xbd, 0x60, 0xf2, 0x0b, 0xbe,
    0xf9, 0xd1, 0x2e, 0xbb, 0xad, 0x55, 0x0f, 0xbb, 0x0c, 0xb5, 0x0d, 0x3d,
    0xf7, 0x8d, 0x8f, 0xbe, 0xfe, 0xa3, 0xf3, 0x3d, 0xb0, 0xbc, 0xd0, 0x3e,
    0xd8, 0x72, 0xf3, 0xbd, 0x2f, 0xee, 0x70, 0x3e, 0x78, 0xf5, 0x16, 0x3d,
    0x4e, 0xaf, 0x86, 0x3b, 0xa7, 0x95, 0x87, 0xbd, 0x77, 0x5e, 0x7a, 0xbc,
    0xf7, 0x23, 0x51, 0x3d, 0x68, 0x7b, 0x2a, 0xbe, 0x07, 0x1a, 0xac, 0xbc,
    0x0b, 0x18, 0x86, 0x3c, 0x27, 0x8c, 0x60, 0xbd, 0xa3, 0x26, 0xc1, 0xbe,
    0x02, 0x31, 0xb3, 0xbd, 0xc3, 0xdf, 0x3d, 0x3c, 0x44, 0x4d, 0x7c, 0xbd,
    0x04, 0xfa, 0x70, 0xbd, 0x25, 0x15, 0x90, 0xbd, 0x24, 0xad, 0x4a, 0x3d,
    0x1a, 0xf6, 0x68, 0xbe, 0xfd, 0x21, 0x5e, 0x3d, 0x3a, 0xda, 0x13, 0x3e,
    0x61, 0xeb, 0xeb, 0x3d, 0x73, 0x51, 0x8b, 0x3d, 0x9a, 0x98, 0xac, 0x3e,
    0xf4, 0x84, 0x92, 0x3d, 0xce, 0x1e, 0x46, 0xbe, 0x52, 0xe0, 0xce, 0x3d,
    0xd9, 0x97, 0xaa, 0xbc, 0xbf, 0x47, 0x06, 0xbe, 0xf6, 0xb1, 0xcd, 0xbd,
    0x7e, 0x8b, 0xcf, 0x3d, 0x5a, 0x84, 0xc5, 0xbd, 0x00, 0xac, 0xbe, 0xbd,
    0x53, 0xdd, 0x7f, 0xbe, 0xfb, 0xba, 0xd4, 0x3d, 0xf5, 0x67, 0xcb, 0xbd,
    0x30, 0x59, 0x27, 0xbd, 0xe0, 0x33, 0xa8, 0x3d, 0x5d, 0xb2, 0xd5, 0xbd,
    0x8b, 0x94, 0x98, 0xbc, 0x00, 0x07, 0x9a, 0xbe, 0xc0, 0xa3, 0x31, 0xbd,
    0x1f, 0x44, 0x40, 0xbe, 0xd4, 0xbf, 0x78, 0xbb, 0x5c, 0x68, 0xc5, 0xbd,
    0xa5, 0x63, 0x12, 0x3d, 0xf3, 0x3d, 0x87, 0xbb, 0xd5, 0x43, 0x98, 0x3d,
    0x05, 0xbe, 0xc7, 0x3b, 0x40, 0xf2, 0xef, 0x3c, 0x43, 0x54, 0x36, 0xbe,
    0xc0, 0x78, 0xb8, 0xbd, 0xd8, 0xcb, 0x4d, 0xbc, 0x47, 0x83, 0x7a, 0xbd,
    0xcc, 0xf2, 0x27, 0xbd, 0x60, 0x4f, 0x8c, 0xbd, 0x0a, 0x8c, 0xb1, 0xbd,
    0xcc, 0xef, 0x31, 0xbe, 0x50, 0x39, 0xda, 0xbc, 0x96, 0xb8, 0x19, 0x3e,
    0x0d, 0x5e, 0x1f, 0x3d, 0x8a, 0x46, 0xaf, 0xbd, 0xa5, 0x27, 0x60, 0x3c,
    0x9c, 0x3e, 0x8f, 0x3d, 0xd0, 0xb8, 0xf1, 0x3d, 0x8a, 0x52, 0x2f, 0x3e,
    0x8a, 0x12, 0x90, 0xbd, 0x32, 0xac, 0x8c, 0x3d, 0x1a, 0x73, 0x1f, 0xbc,
    0x28, 0xae, 0x37, 0x3e, 0x05, 0x87, 0x33, 0x3d, 0x95, 0x30, 0x51, 0x3e,
    0x0d, 0x41, 0x88, 0xbe, 0x1f, 0x7a, 0x27, 0xbe, 0xc3, 0x90, 0x50, 0xbe,
    0x41, 0x19, 0xf7, 0x3d, 0x64, 0x78, 0x33, 0x3d, 0x92, 0x4c, 0xca, 0x3e,
    0x33, 0xe8, 0x16, 0xbe, 0x76, 0x30, 0x91, 0x3e, 0x79, 0x97, 0xbb, 0x3d,
    0x9c, 0xc8, 0x70, 0x3e, 0x17, 0x66, 0x6b, 0xbd, 0xe4, 0x7a, 0x94, 0x3e,
    0xef, 0xd3, 0x93, 0x3d, 0x95, 0x31, 0x15, 0xbe, 0x21, 0x7b, 0xab, 0x3d,
    0x9a, 0x6d, 0x0b, 0x3e, 0x62, 0x60, 0xe5, 0x3d, 0xf2, 0xc3, 0xd7, 0x3d,
    0xe9, 0x5d, 0xad, 0xbd, 0x85, 0xb0, 0x5f, 0x3e, 0x49, 0xe6, 0x39, 0xbd,
    0x36, 0x72, 0x81, 0x3e, 0xf5, 0x5b, 0x2c, 0xbd, 0x50, 0x24, 0xa9, 0xbc,
    0x2d, 0xc7, 0xb1, 0xbd, 0xc0, 0x73, 0x95, 0xbd, 0x4f, 0x23, 0x82, 0xbd,
    0x4b, 0x86, 0x20, 0x3e, 0x3f, 0x37, 0xec, 0xbd, 0xc6, 0xee, 0x56, 0xbe,
    0x41, 0x29, 0x29, 0xbd, 0x8d, 0xd8, 0x10, 0x3e, 0x6d, 0x60, 0x47, 0xbd,
    0x68, 0xb2, 0x0a, 0x3f, 0xb6, 0xfb, 0xeb, 0x3d, 0xc7, 0x8d, 0x31, 0x3e,
    0xf9, 0x89, 0x4f, 0x39, 0xd1, 0xd5, 0x0d, 0x3e, 0xdd, 0xfb, 0xda, 0xbd,
    0x95, 0x05, 0x64, 0x3e, 0xf4, 0x8b, 0x6f, 0xbe, 0x2b, 0x5f, 0xe2, 0xbe,
    0x77, 0x4e, 0x89, 0xbe, 0x33, 0xbe, 0x59, 0xbc, 0xaf, 0xc7, 0x98, 0x3d,
    0x13, 0x42, 0xce, 0x3e, 0x03, 0xa5, 0x24, 0x3d, 0x9e, 0x36, 0x96, 0x3c,
    0x50, 0x86, 0xb8, 0x3d, 0xf7, 0xbb, 0xd2, 0x3e, 0x21, 0x80, 0x33, 0xbe,
    0xfd, 0x56, 0xa5, 0x3d, 0x5d, 0xdd, 0x2e, 0xbd, 0xa2, 0x19, 0xdf, 0x3d,
    0x3d, 0xb3, 0x44, 0xbe, 0x4b, 0x8f, 0x94, 0x3e, 0x07, 0xd1, 0xad, 0xbd,
    0x34, 0xc1, 0x78, 0x3e, 0x38, 0xd3, 0x06, 0x3d, 0x70, 0x49, 0xb4, 0x3e,
    0xae, 0xd1, 0x16, 0x3e, 0x1c, 0xb8, 0xf6, 0x3d, 0x8d, 0x27, 0x06, 0xbe,
    0x6a, 0xdc, 0x97, 0x3e, 0x0e, 0x36, 0xec, 0x3b, 0xf1, 0xdf, 0x78, 0xbd,
    0x72, 0x0f, 0xe3, 0xbd, 0x46, 0xd6, 0xc0, 0x3e, 0xa1, 0x2f, 0xcb, 0xbd,
    0x64, 0x3d, 0xaf, 0x3c, 0x38, 0xc6, 0xfd, 0xbc, 0x81, 0xe6, 0xae, 0x3d,
    0x08, 0xa1, 0x26, 0x3e, 0x66, 0x0a, 0xe7, 0x3e, 0xaa, 0x0f, 0x8d, 0xbc,
    0x13, 0x72, 0x03, 0x3e, 0x61, 0x42, 0x87, 0xbb, 0x1f, 0x25, 0x46, 0x3d,
    0x25, 0xea, 0xa9, 0x3d, 0x34, 0x47, 0x8a, 0x39, 0xcb, 0xca, 0x02, 0xbe,
    0x4c, 0xa4, 0xfb, 0x3e, 0xf1, 0xcc, 0xc4, 0xbd, 0x6d, 0xe7, 0xa8, 0x3e,
    0x52, 0xbe, 0x09, 0x3d, 0xf0, 0xe0, 0x48, 0x3e, 0xa5, 0xc3, 0x0b, 0xbe,
    0xe0, 0x5a, 0x5a, 0xbd, 0x84, 0x00, 0x50, 0x3e, 0x0a, 0x87, 0x66, 0x3d,
    0xf5, 0x48, 0xf5, 0xbd, 0xe2, 0x40, 0x02, 0x3e, 0x07, 0x7c, 0x64, 0xbd,
    0xbe, 0xfe, 0xdb, 0xbd, 0x41, 0x25, 0x1e, 0x3d, 0x98, 0x45, 0x80, 0x3e,
    0xc0, 0x15, 0x12, 0x3e, 0x03, 0xf3, 0xbb, 0x3e, 0x2c, 0xeb, 0x36, 0xbd,
    0x96, 0x8e, 0x19, 0x3c, 0xeb, 0xf1, 0xcf, 0x3d, 0xa4, 0x74, 0xc6, 0x3e,
    0x09, 0xc8, 0xb3, 0xbd, 0x6c, 0x59, 0x73, 0x3e, 0x2e, 0x38, 0x8b, 0xbd,
    0xb8, 0x76, 0x8a, 0x3e, 0x97, 0xcc, 0x93, 0xbd, 0xea, 0x14, 0xcb, 0x3e,
    0x45, 0xf6, 0x3f, 0x3c, 0x31, 0xb4, 0xc1, 0x3e, 0x81, 0x59, 0x0d, 0x3d,
    0xd3, 0x56, 0x59, 0xbc, 0xb6, 0xae, 0x84, 0xbd, 0xb6, 0x2b, 0xe0, 0x3d,
    0x65, 0xaf, 0x0a, 0xbe, 0x79, 0x12, 0x19, 0x3c, 0xe4, 0xb1, 0x55, 0x3d,
    0xaa, 0x4c, 0x48, 0x3c, 0x9e, 0xba, 0x81, 0xbd, 0xeb, 0xf2, 0x90, 0x3b,
    0xf1, 0xfe, 0x90, 0x3d, 0xc4, 0xb0, 0x6c, 0x3e, 0x18, 0x6b, 0x1e, 0x3d,
    0x10, 0x41, 0x19, 0x3e, 0x34, 0x0b, 0x86, 0xbd, 0x13, 0x47, 0x06, 0x3e,
    0xfc, 0xf5, 0x1e, 0xba, 0xca, 0x1e, 0xb0, 0x3e, 0x9f, 0x65, 0xc8, 0xba,
    0x46, 0x3c, 0xb4, 0x3e, 0x73, 0xcb, 0x2e, 0xbd, 0x12, 0xd1, 0x4e, 0x3e,
    0x2a, 0xda, 0xc6, 0x3c, 0x4d, 0x27, 0xe1, 0x3d, 0xb2, 0x07, 0x04, 0xbd,
    0x3d, 0xfa, 0x97, 0x3e, 0xbf, 0xd6, 0x19, 0xbe, 0xcc, 0x82, 0x3e, 0x3e,
    0xe4, 0x12, 0xa2, 0x3d, 0x24, 0x6e, 0xc6, 0x3d, 0x27, 0x1e, 0x84, 0x3e,
    0x33, 0x58, 0xf7, 0xbd, 0x57, 0xdf, 0x27, 0xbd, 0x8d, 0xda, 0x99, 0x3d,
    0xe6, 0x6c, 0xcb, 0x3c, 0x4d, 0x10, 0xb8, 0xbd, 0x01, 0x61, 0x04, 0xbd,
    0x94, 0x7f, 0x03, 0xbf, 0x5a, 0xd7, 0x02, 0x3e, 0x24, 0x49, 0x37, 0x3e,
    0xff, 0xf7, 0xc5, 0x3b, 0xf4, 0x0a, 0x97, 0x3e, 0x8a, 0xfa, 0xc1, 0xbc,
    0x92, 0x0e, 0x54, 0x3e, 0xd2, 0x0a, 0x4c, 0x3d, 0xee, 0x6d, 0x59, 0x3e,
    0xb6, 0xfb, 0x00, 0x3d, 0xf6, 0xdd, 0x43, 0x3e, 0x88, 0xb8, 0xa5, 0xbd,
    0x73, 0x4f, 0x4f, 0x3e, 0xfe, 0xee, 0x88, 0xbb, 0x50, 0x36, 0x8a, 0x3e,
    0x4e, 0x34, 0xa8, 0x3d, 0x8f, 0xd9, 0x81, 0x3e, 0xac, 0x78, 0x26, 0x3d,
    0x05, 0x56, 0x04, 0x3e, 0xb7, 0xc8, 0x00, 0x3e, 0xe1, 0x14, 0xc8, 0x3e,
    0xfd, 0x18, 0xc4, 0x3d, 0xb8, 0x97, 0xdc, 0xbc, 0x24, 0x5f, 0xa6, 0xbd,
    0xe4, 0xab, 0x6a, 0xb9, 0xd1, 0x0f, 0x2e, 0x3d, 0xc6, 0x78, 0x7b, 0x3e,
    0xde, 0x08, 0x61, 0xbb, 0x6a, 0xb6, 0x58, 0x3e, 0xc2, 0x68, 0xcb, 0xbd,
    0x2d, 0xb5, 0xa3, 0xbd, 0xa0, 0x3b, 0xbd, 0xbd, 0x8a, 0xd1, 0xfd, 0x3e,
    0x2b, 0xa1, 0xa0, 0xbd, 0x59, 0x2b, 0x09, 0x3e, 0x22, 0xcb, 0xa0, 0x3d,
    0x97, 0x90, 0xa8, 0x3d, 0xb6, 0x42, 0x6a, 0x3d, 0x9f, 0x1f, 0x18, 0x3e,
    0x81, 0xf2, 0x31, 0xbe, 0x24, 0x33, 0x68, 0x3e, 0x44, 0x58, 0x90, 0xbb,
    0x76, 0x1c, 0x57, 0x3e, 0x57, 0x66, 0x82, 0x3e, 0xc3, 0x44, 0xdd, 0x3d,
    0xd9, 0x53, 0x15, 0xbd, 0xe5, 0x84, 0x76, 0x3e, 0x5d, 0x4b, 0x0d, 0x3e,
    0x4e, 0xe0, 0x7e, 0xbc, 0x0b, 0x84, 0x59, 0x3d, 0x98, 0x5a, 0x17, 0x3e,
    0xd5, 0x5b, 0x1d, 0x3e, 0x98, 0x81, 0xd1, 0x3c, 0x47, 0x4d, 0x65, 0xbd,
    0xa4, 0xd5, 0xd1, 0x3d, 0x63, 0x7c, 0x2e, 0x3e, 0x92, 0x1d, 0x31, 0x3e,
    0x5a, 0xb5, 0x44, 0x3e, 0x8b, 0xb4, 0x18, 0x3e, 0xa3, 0xa6, 0x05, 0x3d,
    0xad, 0xc2, 0xe9, 0x3d, 0xa1, 0x37, 0x27, 0xbe, 0xa0, 0x63, 0x27, 0x3e,
    0x31, 0xe4, 0x2d, 0xbe, 0xfe, 0xd9, 0x46, 0x3e, 0x10, 0x44, 0x89, 0xbc,
    0x3c, 0xe7, 0xaa, 0x3e, 0x49, 0xf2, 0xc0, 0x3d, 0x09, 0xc1, 0x95, 0x3e,
    0x5e, 0xcc, 0xe7, 0x3d, 0x5c, 0xab, 0x52, 0x3e, 0x9d, 0xe6, 0x98, 0x3c,
    0xad, 0x7c, 0xff, 0x3e, 0x2d, 0xe9, 0xd9, 0x3d, 0x5a, 0x46, 0x16, 0x3d,
    0xda, 0x18, 0x82, 0xbb, 0x56, 0xa7, 0x5f, 0x3e, 0xbe, 0x25, 0x8c, 0x3d,
    0x7a, 0x30, 0x3c, 0xbe, 0x63, 0xa8, 0xed, 0x3d, 0x17, 0xc7, 0x8b, 0xbd,
    0x26, 0xad, 0xc0, 0x3d, 0xea, 0xda, 0xd4, 0xbd, 0xf2, 0x39, 0xea, 0x3c,
    0xd1, 0xb9, 0xd4, 0xbd, 0x25, 0x67, 0xbb, 0x3d, 0x53, 0xeb, 0x83, 0x3e,
    0x75, 0x37, 0x35, 0xbd, 0xed, 0xbd, 0xa2, 0x3e, 0x8e, 0x60, 0xc2, 0xbd,
    0xd2, 0xce, 0x60, 0x3e, 0xf2, 0x20, 0x1a, 0x3e, 0x25, 0x65, 0xbc, 0xbd,
    0x9c, 0x34, 0x3e, 0xbd, 0xc8, 0x7e, 0x9c, 0x3d, 0xd4, 0x61, 0xc6, 0x3d,
    0x0a, 0x0d, 0x65, 0x3e, 0xd1, 0x7e, 0x8e, 0x3d, 0x52, 0xeb, 0x0e, 0xbd,
    0x11, 0xbe, 0xa8, 0x3d, 0x75, 0x83, 0xa7, 0x3b, 0xe8, 0xf0, 0x09, 0xbe,
    0x90, 0xc5, 0xa7, 0xbd, 0x07, 0xf5, 0x9c, 0x3c, 0x31, 0x92, 0x1e, 0xbe,
    0x47, 0xe7, 0x1f, 0x3e, 0x18, 0x29, 0x15, 0xbd, 0x9a, 0xd3, 0x04, 0x3e,
    0xc4, 0x53, 0xc5, 0x3d, 0xee, 0x8b, 0x82, 0x3e, 0x54, 0xe5, 0xf1, 0x3d,
    0xae, 0x71, 0xe1, 0x3c, 0xf0, 0x61, 0xd7, 0x3d, 0x18, 0x1c, 0x6e, 0x3e,
    0x9e, 0x45, 0xaa, 0xbd, 0x24, 0x01, 0x32, 0xbd, 0x06, 0xd9, 0x98, 0x3e,
    0x29, 0x86, 0xd9, 0xbd, 0xd6, 0x10, 0xc5, 0xbe, 0xb9, 0xd9, 0xb2, 0x3c,
    0xc3, 0xe8, 0x54, 0xbe, 0x28, 0x62, 0xeb, 0x3c, 0x45, 0x54, 0x1a, 0xbe,
    0x80, 0xd2, 0x2d, 0xbc, 0xf4, 0x70, 0x2a, 0x3e, 0x43, 0xb6, 0x37, 0x3d,
    0xaa, 0x76, 0x08, 0x3e, 0xae, 0x08, 0xaa, 0x3d, 0xc6, 0x63, 0x26, 0x3e,
    0x87, 0xd2, 0x19, 0xbd, 0x33, 0x57, 0xd9, 0x3e, 0xd0, 0x08, 0x24, 0xbe,
    0x46, 0x94, 0x97, 0x3d, 0x1b, 0x7c, 0x70, 0xbc, 0xa2, 0xab, 0x1c, 0x3e,
    0x7c, 0x69, 0x73, 0x3e, 0x0c, 0x80, 0xae, 0xbc, 0xf8, 0xae, 0x6d, 0x3e,
    0xcb, 0xda, 0xb9, 0x3d, 0xfc, 0x22, 0xb6, 0xbd, 0x7b, 0xa8, 0x88, 0xbe,
    0xdf, 0xfc, 0xd0, 0xbd, 0x97, 0x61, 0xc2, 0xbe, 0xc1, 0x8f, 0x1c, 0xbe,
    0x3d, 0xbb, 0x1b, 0x3e, 0x70, 0xea, 0x3e, 0x3d, 0x3e, 0x8b, 0x5c, 0xbb,
    0x1a, 0x60, 0xc7, 0x3a, 0x46, 0xda, 0xd6, 0xbc, 0xbe, 0x20, 0xd0, 0x3c,
    0xca, 0xae, 0x01, 0x3e, 0x19, 0x61, 0xe1, 0xbc, 0xd2, 0xfd, 0x34, 0x3e,
    0xea, 0xfe, 0x86, 0xbd, 0x6d, 0x01, 0x4a, 0x3d, 0x75, 0x2f, 0xab, 0x3c,
    0x79, 0x6b, 0x0c, 0xbe, 0xe5, 0x8b, 0x2c, 0x3e, 0x03, 0xf6, 0x42, 0x3d,
    0x67, 0x70, 0xb9, 0x3d, 0xe9, 0x95, 0x22, 0x3d, 0xe0, 0xd2, 0x6d, 0xbd,
    0x93, 0x08, 0x8b, 0xbd, 0xaf, 0x6b, 0xc7, 0x3d, 0xcc, 0xac, 0x07, 0xbe,
    0xe1, 0xdb, 0xb7, 0x3d, 0xde, 0x1b, 0x6a, 0xbe, 0x43, 0x6f, 0xcd, 0xbd,
    0x1e, 0xd1, 0x57, 0x3c, 0x56, 0x80, 0xcf, 0x3d, 0xc1, 0x49, 0xa9, 0x3d,
    0x96, 0x34, 0xb6, 0xbd, 0xdc, 0x15, 0x7e, 0xbd, 0x4c, 0x91, 0xca, 0xbc,
    0x59, 0xa7, 0xb2, 0x3d, 0x61, 0x74, 0x63, 0x3d, 0xc8, 0x94, 0x36, 0x3d,
    0xf3, 0x3e, 0x75, 0x3c, 0xa6, 0x31, 0xc8, 0xbd, 0x83, 0xf0, 0xbb, 0x3c,
    0xbd, 0xe1, 0xeb, 0xbc, 0x96, 0x07, 0xa6, 0xbb, 0xfb, 0x64, 0xb5, 0xbc,
    0x66, 0x51, 0x0d, 0xbd, 0x71, 0x25, 0x07, 0xbe, 0xba, 0xde, 0xe3, 0x3d,
    0xae, 0x55, 0xc8, 0xbd, 0xed, 0x82, 0xb7, 0x3d, 0x9a, 0x69, 0xb3, 0xbd,
    0x28, 0xf4, 0x36, 0x3d, 0x3d, 0x57, 0xb6, 0xbe, 0x9c, 0xea, 0xc1, 0x3d,
    0x5e, 0xb5, 0x2f, 0x3e, 0x59, 0x8d, 0x80, 0x39, 0x54, 0xa0, 0x73, 0xbe,
    0x16, 0xb3, 0x1e, 0x3e, 0x84, 0xc6, 0xc0, 0xbe, 0xa3, 0x37, 0x19, 0x3e,
    0xdf, 0xb9, 0x8a, 0xbe, 0x1f, 0xf8, 0x2e, 0xbe, 0xfd, 0x36, 0xc4, 0xbe,
    0x07, 0x44, 0x12, 0xbc, 0xe1, 0x97, 0xde, 0xbe, 0x1f, 0x77, 0x94, 0x3a,
    0x7e, 0x6a, 0x81, 0xbd, 0x8b, 0x73, 0x96, 0x3d, 0xe6, 0x79, 0x7c, 0xbe,
    0x1f, 0x25, 0x76, 0xba, 0x66, 0x6d, 0x27, 0x3d, 0xbd, 0x85, 0x73, 0x3e,
    0x2d, 0xca, 0x80, 0xbd, 0x1c, 0x1a, 0x0f, 0x3d, 0xd9, 0xe2, 0xca, 0xbe,
    0x91, 0xa9, 0x37, 0x3e, 0xa7, 0xc5, 0x71, 0xbd, 0x2b, 0xff, 0xc3, 0xbc,
    0x25, 0x70, 0x2b, 0x3e, 0xae, 0x92, 0x12, 0x3e, 0x46, 0x80, 0x6c, 0xbe,
    0x22, 0x81, 0x69, 0x3e, 0xcd, 0x50, 0x8e, 0x3e, 0xce, 0x2e, 0xf0, 0x3d,
    0x89, 0x76, 0x24, 0xbe, 0xba, 0xd5, 0x79, 0xbd, 0x16, 0xdd, 0xe9, 0xbe,
    0xc5, 0x43, 0x60, 0xbe, 0x73, 0xe8, 0xb9, 0xbd, 0x9c, 0x0b, 0xdb, 0xbd,
    0x70, 0x3c, 0x9b, 0xbd, 0x5a, 0xa1, 0x5b, 0x3d, 0x13, 0xca, 0xdc, 0xbe,
    0x3c, 0x3f, 0x16, 0x3e, 0x8c, 0x15, 0xd2, 0x3e, 0xf4, 0xfc, 0xa0, 0x3d,
    0x34, 0x5a, 0xf9, 0xbd, 0x2c, 0xd8, 0xc8, 0xbc, 0x62, 0xd4, 0xa8, 0xbe,
    0xf3, 0x59, 0x1b, 0x3d, 0xda, 0x20, 0xcf, 0x3c, 0xa0, 0xd5, 0xf4, 0x3c,
    0xe2, 0xa8, 0xc9, 0xbe, 0x46, 0x9d, 0x50, 0x3b, 0x93, 0xaf, 0x02, 0xbe,
    0x40, 0xe4, 0x80, 0xbd, 0xec, 0xab, 0x31, 0xbc, 0x21, 0xca, 0x43, 0x3e,
    0x21, 0xdb, 0x35, 0xbe, 0x47, 0x65, 0x0a, 0x3c, 0xf4, 0x72, 0x3d, 0xbe,
    0x76, 0x7b, 0xb0, 0xbd, 0xfc, 0xa9, 0x14, 0xbf, 0xf2, 0x4f, 0x02, 0xba,
    0xf2, 0x7c, 0x1a, 0x3d, 0xc3, 0x43, 0x1c, 0x3d, 0x3c, 0x62, 0x59, 0xbe,
    0x11, 0xbf, 0x94, 0xbc, 0xec, 0xf9, 0x80, 0x3e, 0x8b, 0x26, 0x88, 0x3c,
    0xe9, 0xb6, 0x87, 0xbe, 0xb8, 0x6a, 0xa3, 0x3b, 0x31, 0xb2, 0x09, 0x3d,
    0x60, 0xa3, 0x27, 0x3e, 0xf5, 0x94, 0xec, 0xbd, 0x4a, 0x8b, 0xc5, 0x3c,
    0xf3, 0x74, 0xf5, 0xbe, 0xe8, 0x50, 0x0a, 0x3e, 0xae, 0x4d, 0x16, 0xbe,
    0x10, 0xc4, 0x2d, 0xbd, 0x29, 0x9c, 0x0b, 0xbe, 0xe0, 0xe8, 0x36, 0xbd,
    0x8c, 0x0d, 0x2c, 0xbe, 0xb2, 0x23, 0x17, 0x3e, 0x23, 0xd1, 0x91, 0xbe,
    0x40, 0xfd, 0xef, 0x3d, 0xce, 0x27, 0xd0, 0xbe, 0xe5, 0x6c, 0x31, 0xbe,
    0x6b, 0x13, 0xd1, 0xbe, 0x5c, 0xae, 0x5f, 0x3c, 0xd1, 0x90, 0x03, 0x3e,
    0xe6, 0x79, 0x80, 0xbd, 0xae, 0x5b, 0xdd, 0x3a, 0xdc, 0xf7, 0xc0, 0xbc,
    0x40, 0x14, 0xea, 0xbd, 0xcb, 0x69, 0xc4, 0xbd, 0xe6, 0x16, 0x04, 0xbd,
    0xeb, 0x45, 0x4c, 0xbe, 0x91, 0xb6, 0x40, 0xbe, 0x8f, 0x4e, 0x00, 0xbe,
    0x72, 0x4a, 0x79, 0xbe, 0x31, 0xb0, 0xa4, 0xbd, 0x82, 0xab, 0xa8, 0x3d,
    0x42, 0x93, 0xea, 0x3a, 0xa4, 0xa6, 0xd9, 0xbe, 0x0e, 0x5d, 0x5e, 0x3e,
    0x71, 0xe1, 0x67, 0xbe, 0xa4, 0xf2, 0x12, 0x3e, 0x1d, 0x9e, 0x5c, 0xbe,
    0xd3, 0xd9, 0x80, 0x3d, 0xdb, 0x8a, 0xc5, 0xbe, 0xe1, 0xd9, 0xd2, 0xbd,
    0x5d, 0x1f, 0x7b, 0xbe, 0x40, 0x4a, 0x81, 0xbd, 0x54, 0x05, 0x1d, 0xbe,
    0xcb, 0x1c, 0x82, 0x3d, 0xbc, 0x30, 0x8b, 0xbd, 0xd5, 0xea, 0x90, 0xbc,
    0x3b, 0x05, 0xce, 0x3d, 0xcd, 0x6c, 0x35, 0xbe, 0xbe, 0x10, 0x95, 0xbc,
    0x6a, 0x14, 0xa8, 0x3d, 0x4c, 0xb2, 0xd0, 0xbd, 0x9d, 0x4d, 0x9c, 0xbc,
    0xf9, 0xe7, 0x99, 0xbe, 0x6d, 0x75, 0x0d, 0xbe, 0xb9, 0x4e, 0x4b, 0xbe,
    0x2c, 0x0f, 0x62, 0x3d, 0x03, 0x6a, 0x0a, 0xbe, 0x56, 0x26, 0xde, 0x3d,
    0xf9, 0x26, 0x09, 0xbf, 0x25, 0x1b, 0xc6, 0x3d, 0x6d, 0x60, 0xbd, 0xbe,
    0x40, 0x56, 0x68, 0xbc, 0xfd, 0x56, 0x55, 0xbe, 0x14, 0x71, 0xa1, 0xbd,
    0xf6, 0x0b, 0xa9, 0xbd, 0xf5, 0x82, 0xcd, 0x3d, 0xc4, 0x1a, 0x93, 0xbe,
    0x48, 0x71, 0x63, 0xbc, 0x18, 0x44, 0x32, 0xbe, 0x8f, 0x21, 0x0b, 0x3e,
    0xd0, 0x1e, 0xe6, 0xbd, 0x14, 0x07, 0x19, 0xbe, 0x5f, 0x02, 0x37, 0x3e,
    0xb8, 0x1a, 0xca, 0x3d, 0xcd, 0x55, 0x40, 0x3d, 0x75, 0x86, 0xa7, 0xbc,
    0xe4, 0xbe, 0x45, 0x3e, 0x81, 0x78, 0xc0, 0xbd, 0x82, 0x97, 0x87, 0x3e,
    0x9f, 0xf5, 0xca, 0x3d, 0xdc, 0x24, 0x28, 0xbe, 0xd9, 0x2d, 0x26, 0x3e,
    0xb6, 0x5d, 0x24, 0xbe, 0x28, 0xdd, 0xc5, 0xbc, 0x35, 0x26, 0x7a, 0xbe,
    0x04, 0xa3, 0xd8, 0xbc, 0xf7, 0xae, 0xd5, 0xbd, 0xb8, 0xc1, 0x8b, 0xbd,
    0xdb, 0x25, 0x2a, 0xbe, 0xa7, 0xd0, 0x90, 0xbd, 0x6e, 0x0a, 0xb7, 0xbe,
    0x62, 0x5a, 0x8e, 0x3d, 0xb5, 0x88, 0x3f, 0xbe, 0xaf, 0x74, 0x7d, 0xbd,
    0xff, 0x20, 0x8c, 0xbe, 0xa6, 0xe6, 0x03, 0xbe, 0x61, 0xc4, 0xfb, 0xbd,
    0x81, 0x64, 0x44, 0xbe, 0xca, 0x11, 0xed, 0xbe, 0xe5, 0x6b, 0x85, 0xbc,
    0x53, 0x6e, 0x0d, 0x3c, 0x33, 0xf5, 0xb4, 0xbd, 0x94, 0x6a, 0x9e, 0xbd,
    0x68, 0x2d, 0x88, 0x3d, 0xf6, 0x0e, 0x89, 0xbe, 0x78, 0x34, 0x63, 0xbd,
    0x37, 0x2c, 0x63, 0xbe, 0xad, 0x17, 0x33, 0x3e, 0x76, 0x98, 0xfb, 0x3c,
    0x01, 0x2d, 0x79, 0xbd, 0x10, 0xdb, 0xc6, 0xbe, 0x46, 0x21, 0x63, 0x3d,
    0x85, 0x48, 0x1e, 0xbd, 0x90, 0x94, 0x2a, 0x3d, 0x9f, 0x97, 0xea, 0x3d,
    0x68, 0xef, 0x26, 0xbc, 0xd7, 0x7f, 0x4f, 0xbe, 0x47, 0xe4, 0x81, 0x3e,
    0x0a, 0x81, 0xa4, 0xbe, 0xa3, 0x6f, 0x09, 0xbd, 0x33, 0x03, 0xaa, 0xbe,
    0x45, 0x67, 0xfe, 0xbd, 0xd9, 0xd3, 0x02, 0xbe, 0x7f, 0xdd, 0xa1, 0xbd,
    0x2f, 0x4f, 0x6a, 0xbe, 0xb5, 0x02, 0xf9, 0xbc, 0x0a, 0x5c, 0x83, 0x3d,
    0x4a, 0xb8, 0xba, 0xbd, 0x78, 0x0c, 0xf6, 0xbc, 0x50, 0x34, 0x04, 0xbd,
    0x38, 0xf8, 0xc2, 0xbb, 0xc6, 0x20, 0x49, 0xbd, 0xc9, 0x2c, 0x2b, 0x3d,
    0xea, 0xa1, 0x4b, 0x3d, 0xe4, 0xa3, 0xbd, 0x3c, 0xd4, 0xca, 0xb7, 0x3c,
    0x87, 0x53, 0x48, 0xbc, 0x8f, 0x2d, 0xf9, 0x3d, 0x98, 0x25, 0x2f, 0xbe,
    0xdf, 0x67, 0x61, 0x3e, 0x7f, 0x72, 0x09, 0xbe, 0xf2, 0xd9, 0xe4, 0x3d,
    0xa1, 0x5a, 0x95, 0xbd, 0x9c, 0xf0, 0x0a, 0x3e, 0x34, 0x2b, 0x6a, 0xbe,
    0x79, 0x0d, 0x15, 0x3d, 0x9f, 0x54, 0x7e, 0xbe, 0x9b, 0xe9, 0x1d, 0xbe,
    0x96, 0x29, 0x9b, 0xbe, 0xcb, 0x65, 0x6a, 0xbd, 0xce, 0x86, 0xd7, 0xbe,
    0x39, 0xdf, 0x86, 0xbe, 0x19, 0x59, 0x07, 0xbd, 0xfe, 0x33, 0x14, 0xbe,
    0xb4, 0x40, 0x97, 0xbe, 0x72, 0x74, 0x3a, 0xbe, 0x0c, 0xab, 0xcf, 0x3d,
    0x6b, 0x84, 0x88, 0xbc, 0xa9, 0x2d, 0xc5, 0x3d, 0xad, 0x8a, 0x11, 0xbb,
    0x13, 0x3d, 0x51, 0x3e, 0xc8, 0x74, 0xaa, 0xbd, 0x0b, 0x66, 0x02, 0x3e,
    0x64, 0x7b, 0x4e, 0x3b, 0xa4, 0xb0, 0x8d, 0xbe, 0x36, 0x6d, 0x82, 0x3d,
    0x71, 0x2c, 0xc8, 0xbe, 0x2c, 0x75, 0x0b, 0x3e, 0x84, 0x0a, 0x48, 0xbe,
    0x3e, 0x67, 0x00, 0xbe, 0xb3, 0xac, 0x28, 0x3e, 0xb0, 0x27, 0x6b, 0x3e,
    0xbf, 0xc2, 0x2e, 0x3d, 0x59, 0xa5, 0xa1, 0xbd, 0xd7, 0xd8, 0x3f, 0xbe,
    0x77, 0x92, 0x38, 0xbe, 0xa5, 0xd8, 0x71, 0xbc, 0xa2, 0xfd, 0xff, 0xff,
    0x04, 0x00, 0x00, 0x00, 0x08, 0x00, 0x00, 0x00, 0xff, 0xff, 0xff, 0xff,
    0x52, 0x01, 0x00, 0x00, 0xb6, 0xfd, 0xff, 0xff, 0x04, 0x00, 0x00, 0x00,
    0x08, 0x00, 0x00, 0x00, 0xd5, 0x7d, 0x91, 0xbe, 0xd6, 0x7d, 0x91, 0x3e,
    0xca, 0xfd, 0xff, 0xff, 0x04, 0x00, 0x00, 0x00, 0x90, 0x00, 0x00, 0x00,
    0xa3, 0xdd, 0x3a, 0xbf, 0xf5, 0x91, 0xa6, 0xbe, 0x05, 0x56, 0x72, 0xbf,
    0x54, 0xdf, 0x36, 0xbe, 0xae, 0xf1, 0xd6, 0x3d, 0xb7, 0x29, 0x90, 0xbb,
    0x85, 0x90, 0xdb, 0x3e, 0x12, 0xe8, 0x2f, 0x3e, 0xb9, 0x93, 0xdc, 0x3e,
    0x17, 0x73, 0xba, 0x3d, 0x89, 0x7a, 0x11, 0xbf, 0x41, 0x39, 0xd9, 0x3e,
    0x36, 0x85, 0xcf, 0xbe, 0xfe, 0x77, 0x77, 0x3d, 0xc2, 0x61, 0xdd, 0x3e,
    0x74, 0x1c, 0xc9, 0x3e, 0xb9, 0x13, 0x34, 0xbe, 0x80, 0xed, 0x38, 0xbe,
    0x52, 0xee, 0xeb, 0xbd, 0xa9, 0xb1, 0xc7, 0xbd, 0x0e, 0xa7, 0xac, 0xbd,
    0x84, 0xdb, 0x7c, 0x3d, 0xcf, 0xaa, 0xba, 0x3e, 0x5e, 0x8b, 0x93, 0x3e,
    0x2a, 0xaf, 0xa4, 0xbc, 0x17, 0x4e, 0xdd, 0x3e, 0x2f, 0x79, 0x1c, 0xbd,
    0xa8, 0x8b, 0x9d, 0xbd, 0x1a, 0x92, 0x12, 0x3f, 0xb7, 0x6f, 0xf8, 0xbd,
    0x83, 0xff, 0xc9, 0x3e, 0x98, 0x85, 0x63, 0xbe, 0x18, 0xf4, 0xf5, 0x3e,
    0x48, 0x69, 0xf7, 0xbc, 0x37, 0x5b, 0x57, 0x3e, 0xe2, 0x84, 0x94, 0xbd,
    0x66, 0xfe, 0xff, 0xff, 0x04, 0x00, 0x00, 0x00, 0xd8, 0x00, 0x00, 0x00,
    0xcb, 0x94, 0x59, 0x3e, 0x2c, 0x9f, 0x08, 0xbe, 0xfb, 0xb5, 0xd5, 0x3e,
    0xbb, 0x2e, 0x01, 0xbe, 0xc3, 0xe3, 0x5e, 0xbe, 0xb5, 0xe2, 0xda, 0xbe,
    0x6b, 0x74, 0x51, 0x3c, 0xd6, 0x86, 0x06, 0xbe, 0x1b, 0xe5, 0x02, 0xbf,
    0x44, 0xb1, 0x82, 0xbe, 0x2e, 0x29, 0x9b, 0x3e, 0x07, 0x75, 0x5f, 0x3e,
    0xc6, 0xa6, 0x42, 0x3d, 0xbe, 0x11, 0xb8, 0x3d, 0x00, 0x9d, 0x61, 0x3e,
    0x16, 0xbe, 0x08, 0xbe, 0x2b, 0x44, 0x87, 0x3e, 0x56, 0x5d, 0x15, 0xbe,
    0x08, 0xf6, 0xbe, 0xbd, 0x37, 0x0c, 0xf5, 0xbb, 0x83, 0x4e, 0xb5, 0x3d,
    0x00, 0xbc, 0xbe, 0x3e, 0x95, 0x3e, 0xb8, 0xbe, 0x0c, 0xe4, 0x3d, 0x3e,
    0xc4, 0xd2, 0xaf, 0x3e, 0xd2, 0xa0, 0x34, 0xbe, 0xf6, 0x60, 0x17, 0xbe,
    0x13, 0xc5, 0x82, 0x3e, 0x50, 0xd8, 0xdd, 0xbe, 0x2f, 0x21, 0xfc, 0xbe,
    0xbb, 0x84, 0x27, 0x3e, 0x59, 0xe5, 0x93, 0xbe, 0x21, 0xf6, 0xa6, 0xbe,
    0xbd, 0xa4, 0x3a, 0x3d, 0xeb, 0xbf, 0x6a, 0x3c, 0xe0, 0x12, 0x84, 0x3e,
    0xec, 0x8e, 0xa3, 0x3d, 0x6b, 0x94, 0x67, 0x3e, 0x2c, 0xbd, 0x99, 0x3e,
    0x0e, 0xe5, 0x7b, 0x3e, 0xb1, 0x99, 0x13, 0x3e, 0xc6, 0xab, 0x03, 0x3f,
    0x2e, 0x71, 0x88, 0x3e, 0xaa, 0xea, 0xe1, 0x3d, 0x9c, 0x5a, 0x20, 0xbe,
    0x6d, 0x29, 0x8e, 0xbe, 0x5b, 0x5c, 0x6f, 0x3e, 0xac, 0x9f, 0xe5, 0x3e,
    0x87, 0x3a, 0x78, 0x3d, 0x9f, 0x13, 0x3c, 0x3d, 0xd4, 0x26, 0xca, 0x3e,
    0xe8, 0xba, 0x7e, 0x3e, 0x7d, 0x11, 0xcd, 0xbc, 0x2e, 0x5a, 0x2d, 0x3d,
    0x4a, 0xff, 0xff, 0xff, 0x04, 0x00, 0x00, 0x00, 0x08, 0x00, 0x00, 0x00,
    0x95, 0x0e, 0x1c, 0x3e, 0x50, 0x90, 0x5c, 0xbe, 0x5e, 0xff, 0xff, 0xff,
    0x04, 0x00, 0x00, 0x00, 0x08, 0x00, 0x00, 0x00, 0xdf, 0xa9, 0x5d, 0xbe,
    0xd5, 0xdb, 0x34, 0xbe, 0x88, 0xf7, 0xff, 0xff, 0x8c, 0xf7, 0xff, 0xff,
    0x0f, 0x00, 0x00, 0x00, 0x4d, 0x4c, 0x49, 0x52, 0x20, 0x43, 0x6f, 0x6e,
    0x76, 0x65, 0x72, 0x74, 0x65, 0x64, 0x2e, 0x00, 0x01, 0x00, 0x00, 0x00,
    0x14, 0x00, 0x00, 0x00, 0x00, 0x00, 0x0e, 0x00, 0x18, 0x00, 0x14, 0x00,
    0x10, 0x00, 0x0c, 0x00, 0x08, 0x00, 0x04, 0x00, 0x0e, 0x00, 0x00, 0x00,
    0x14, 0x00, 0x00, 0x00, 0x1c, 0x00, 0x00, 0x00, 0xcc, 0x01, 0x00, 0x00,
    0xd0, 0x01, 0x00, 0x00, 0xd4, 0x01, 0x00, 0x00, 0x04, 0x00, 0x00, 0x00,
    0x6d, 0x61, 0x69, 0x6e, 0x00, 0x00, 0x00, 0x00, 0x06, 0x00, 0x00, 0x00,
    0x64, 0x01, 0x00, 0x00, 0x00, 0x01, 0x00, 0x00, 0xac, 0x00, 0x00, 0x00,
    0x84, 0x00, 0x00, 0x00, 0x40, 0x00, 0x00, 0x00, 0x04, 0x00, 0x00, 0x00,
    0x22, 0xff, 0xff, 0xff, 0x1c, 0x00, 0x00, 0x00, 0x00, 0x00, 0x00, 0x09,
    0x1c, 0x00, 0x00, 0x00, 0x20, 0x00, 0x00, 0x00, 0x04, 0x00, 0x00, 0x00,
    0x00, 0x00, 0x06, 0x00, 0x08, 0x00, 0x04, 0x00, 0x06, 0x00, 0x00, 0x00,
    0x00, 0x00, 0x80, 0x3f, 0x01, 0x00, 0x00, 0x00, 0x0d, 0x00, 0x00, 0x00,
    0x01, 0x00, 0x00, 0x00, 0x0c, 0x00, 0x00, 0x00, 0x5a, 0xff, 0xff, 0xff,
    0x14, 0x00, 0x00, 0x00, 0x00, 0x00, 0x00, 0x08, 0x10, 0x00, 0x00, 0x00,
    0x14, 0x00, 0x00, 0x00, 0x03, 0x00, 0x00, 0x00, 0x4c, 0xf8, 0xff, 0xff,
    0x01, 0x00, 0x00, 0x00, 0x0c, 0x00, 0x00, 0x00, 0x03, 0x00, 0x00, 0x00,
    0x0b, 0x00, 0x00, 0x00, 0x07, 0x00, 0x00, 0x00, 0x05, 0x00, 0x00, 0x00,
    0x00, 0x00, 0x0a, 0x00, 0x10, 0x00, 0x0c, 0x00, 0x08, 0x00, 0x04, 0x00,
    0x0a, 0x00, 0x00, 0x00, 0x0c, 0x00, 0x00, 0x00, 0x10, 0x00, 0x00, 0x00,
    0x02, 0x00, 0x00, 0x00, 0x01, 0x00, 0x00, 0x00, 0x0b, 0x00, 0x00, 0x00,
    0x02, 0x00, 0x00, 0x00, 0x0a, 0x00, 0x00, 0x00, 0x06, 0x00, 0x00, 0x00,
    0x5e, 0xff, 0xff, 0xff, 0x10, 0x00, 0x00, 0x00, 0x00, 0x00, 0x00, 0x01,
    0x1c, 0x00, 0x00, 0x00, 0x20, 0x00, 0x00, 0x00, 0x50, 0xff, 0xff, 0xff,
    0x00, 0x00, 0x00, 0x01, 0x01, 0x00, 0x00, 0x00, 0x01, 0x00, 0x00, 0x00,
    0x00, 0x00, 0x00, 0x01, 0x01, 0x00, 0x00, 0x00, 0x0a, 0x00, 0x00, 0x00,
    0x03, 0x00, 0x00, 0x00, 0x09, 0x00, 0x00, 0x00, 0x04, 0x00, 0x00, 0x00,
    0x02, 0x00, 0x00, 0x00, 0x00, 0x00, 0x0e, 0x00, 0x1a, 0x00, 0x14, 0x00,
    0x10, 0x00, 0x0c, 0x00, 0x0b, 0x00, 0x04, 0x00, 0x0e, 0x00, 0x00, 0x00,
    0x24, 0x00, 0x00, 0x00, 0x00, 0x00, 0x00, 0x05, 0x34, 0x00, 0x00, 0x00,
    0x38, 0x00, 0x00, 0x00, 0x01, 0x00, 0x00, 0x00, 0x00, 0x00, 0x0e, 0x00,
    0x18, 0x00, 0x17, 0x00, 0x10, 0x00, 0x0c, 0x00, 0x08, 0x00, 0x04, 0x00,
    0x0e, 0x00, 0x00, 0x00, 0x02, 0x00, 0x00, 0x00, 0x02, 0x00, 0x00, 0x00,
    0x02, 0x00, 0x00, 0x00, 0x02, 0x00, 0x00, 0x00, 0x00, 0x00, 0x00, 0x01,
    0x01, 0x00, 0x00, 0x00, 0x09, 0x00, 0x00, 0x00, 0x01, 0x00, 0x00, 0x00,
    0x08, 0x00, 0x00, 0x00, 0x00, 0x00, 0x0e, 0x00, 0x14, 0x00, 0x00, 0x00,
    0x10, 0x00, 0x0c, 0x00, 0x0b, 0x00, 0x04, 0x00, 0x0e, 0x00, 0x00, 0x00,
    0x1c, 0x00, 0x00, 0x00, 0x00, 0x00, 0x00, 0x01, 0x28, 0x00, 0x00, 0x00,
    0x2c, 0x00, 0x00, 0x00, 0x0c, 0x00, 0x14, 0x00, 0x13, 0x00, 0x0c, 0x00,
    0x08, 0x00, 0x07, 0x00, 0x0c, 0x00, 0x00, 0x00, 0x00, 0x00, 0x00, 0x01,
    0x01, 0x00, 0x00, 0x00, 0x01, 0x00, 0x00, 0x00, 0x00, 0x00, 0x00, 0x01,
    0x01, 0x00, 0x00, 0x00, 0x08, 0x00, 0x00, 0x00, 0x03, 0x00, 0x00, 0x00,
    0x00, 0x00, 0x00, 0x00, 0x03, 0x00, 0x00, 0x00, 0x01, 0x00, 0x00, 0x00,
    0x01, 0x00, 0x00, 0x00, 0x0d, 0x00, 0x00, 0x00, 0x01, 0x00, 0x00, 0x00,
    0x00, 0x00, 0x00, 0x00, 0x0e, 0x00, 0x00, 0x00, 0x28, 0x06, 0x00, 0x00,
    0xb4, 0x05, 0x00, 0x00, 0x40, 0x05, 0x00, 0x00, 0xe8, 0x04, 0x00, 0x00,
    0x90, 0x04, 0x00, 0x00, 0x38, 0x04, 0x00, 0x00, 0xe8, 0x03, 0x00, 0x00,
    0x84, 0x03, 0x00, 0x00, 0x8c, 0x02, 0x00, 0x00, 0x14, 0x02, 0x00, 0x00,
    0x3c, 0x01, 0x00, 0x00, 0xdc, 0x00, 0x00, 0x00, 0x60, 0x00, 0x00, 0x00,
    0x04, 0x00, 0x00, 0x00, 0x26, 0xfa, 0xff, 0xff, 0x00, 0x00, 0x00, 0x01,
    0x14, 0x00, 0x00, 0x00, 0x1c, 0x00, 0x00, 0x00, 0x1c, 0x00, 0x00, 0x00,
    0x0e, 0x00, 0x00, 0x00, 0x34, 0x00, 0x00, 0x00, 0x02, 0x00, 0x00, 0x00,
    0xff, 0xff, 0xff, 0xff, 0x02, 0x00, 0x00, 0x00, 0x08, 0xfa, 0xff, 0xff,
    0x19, 0x00, 0x00, 0x00, 0x53, 0x74, 0x61, 0x74, 0x65, 0x66, 0x75, 0x6c,
    0x50, 0x61, 0x72, 0x74, 0x69, 0x74, 0x69, 0x6f, 0x6e, 0x65, 0x64, 0x43,
    0x61, 0x6c, 0x6c, 0x3a, 0x30, 0x00, 0x00, 0x00, 0x02, 0x00, 0x00, 0x00,
    0x01, 0x00, 0x00, 0x00, 0x02, 0x00, 0x00, 0x00, 0x7e, 0xfa, 0xff, 0xff,
    0x00, 0x00, 0x00, 0x01, 0x14, 0x00, 0x00, 0x00, 0x1c, 0x00, 0x00, 0x00,
    0x1c, 0x00, 0x00, 0x00, 0x0d, 0x00, 0x00, 0x00, 0x54, 0x00, 0x00, 0x00,
    0x02, 0x00, 0x00, 0x00, 0xff, 0xff, 0xff, 0xff, 0x02, 0x00, 0x00, 0x00,
    0x60, 0xfa, 0xff, 0xff, 0x38, 0x00, 0x00, 0x00, 0x73, 0x65, 0x71, 0x75,
    0x65, 0x6e, 0x74, 0x69, 0x61, 0x6c, 0x5f, 0x35, 0x2f, 0x64, 0x65, 0x6e,
    0x73, 0x65, 0x5f, 0x35, 0x2f, 0x4d, 0x61, 0x74, 0x4d, 0x75, 0x6c, 0x3b,
    0x73, 0x65, 0x71, 0x75, 0x65, 0x6e, 0x74, 0x69, 0x61, 0x6c, 0x5f, 0x35,
    0x2f, 0x64, 0x65, 0x6e, 0x73, 0x65, 0x5f, 0x35, 0x2f, 0x42, 0x69, 0x61,
    0x73, 0x41, 0x64, 0x64, 0x00, 0x00, 0x00, 0x00, 0x02, 0x00, 0x00, 0x00,
    0x01, 0x00, 0x00, 0x00, 0x02, 0x00, 0x00, 0x00, 0xf6, 0xfa, 0xff, 0xff,
    0x00, 0x00, 0x00, 0x01, 0x14, 0x00, 0x00, 0x00, 0x1c, 0x00, 0x00, 0x00,
    0x1c, 0x00, 0x00, 0x00, 0x0c, 0x00, 0x00, 0x00, 0x38, 0x00, 0x00, 0x00,
    0x02, 0x00, 0x00, 0x00, 0xff, 0xff, 0xff, 0xff, 0x52, 0x01, 0x00, 0x00,
    0xd8, 0xfa, 0xff, 0xff, 0x1e, 0x00, 0x00, 0x00, 0x73, 0x65, 0x71, 0x75,
    0x65, 0x6e, 0x74, 0x69, 0x61, 0x6c, 0x5f, 0x35, 0x2f, 0x66, 0x6c, 0x61,
    0x74, 0x74, 0x65, 0x6e, 0x5f, 0x35, 0x2f, 0x52, 0x65, 0x73, 0x68, 0x61,
    0x70, 0x65, 0x00, 0x00, 0x02, 0x00, 0x00, 0x00, 0x01, 0x00, 0x00, 0x00,
    0x52, 0x01, 0x00, 0x00, 0x52, 0xfb, 0xff, 0xff, 0x00, 0x00, 0x00, 0x01,
    0x14, 0x00, 0x00, 0x00, 0x24, 0x00, 0x00, 0x00, 0x24, 0x00, 0x00, 0x00,
    0x0b, 0x00, 0x00, 0x00, 0xa8, 0x00, 0x00, 0x00, 0x04, 0x00, 0x00, 0x00,
    0xff, 0xff, 0xff, 0xff, 0x0d, 0x00, 0x00, 0x00, 0x0d, 0x00, 0x00, 0x00,
    0x02, 0x00, 0x00, 0x00, 0x3c, 0xfb, 0xff, 0xff, 0x86, 0x00, 0x00, 0x00,
    0x73, 0x65, 0x71, 0x75, 0x65, 0x6e, 0x74, 0x69, 0x61, 0x6c, 0x5f, 0x35,
    0x2f, 0x63, 0x6f, 0x6e, 0x76, 0x32, 0x64, 0x5f, 0x31, 0x31, 0x2f, 0x52,
    0x65, 0x6c, 0x75, 0x3b, 0x73, 0x65, 0x71, 0x75, 0x65, 0x6e, 0x74, 0x69,
    0x61, 0x6c, 0x5f, 0x35, 0x2f, 0x63, 0x6f, 0x6e, 0x76, 0x32, 0x64, 0x5f,
    0x31, 0x31, 0x2f, 0x42, 0x69, 0x61, 0x73, 0x41, 0x64, 0x64, 0x3b, 0x73,
    0x65, 0x71, 0x75, 0x65, 0x6e, 0x74, 0x69, 0x61, 0x6c, 0x5f, 0x35, 0x2f,
    0x63, 0x6f, 0x6e, 0x76, 0x32, 0x64, 0x5f, 0x31, 0x31, 0x2f, 0x43, 0x6f,
    0x6e, 0x76, 0x32, 0x44, 0x3b, 0x73, 0x65, 0x71, 0x75, 0x65, 0x6e, 0x74,
    0x69, 0x61, 0x6c, 0x5f, 0x35, 0x2f, 0x63, 0x6f, 0x6e, 0x76, 0x32, 0x64,
    0x5f, 0x31, 0x31, 0x2f, 0x42, 0x69, 0x61, 0x73, 0x41, 0x64, 0x64, 0x2f,
    0x52, 0x65, 0x61, 0x64, 0x56, 0x61, 0x72, 0x69, 0x61, 0x62, 0x6c, 0x65,
    0x4f, 0x70, 0x00, 0x00, 0x04, 0x00, 0x00, 0x00, 0x01, 0x00, 0x00, 0x00,
    0x0d, 0x00, 0x00, 0x00, 0x0d, 0x00, 0x00, 0x00, 0x02, 0x00, 0x00, 0x00,
    0x26, 0xfc, 0xff, 0xff, 0x00, 0x00, 0x00, 0x01, 0x14, 0x00, 0x00, 0x00,
    0x24, 0x00, 0x00, 0x00, 0x24, 0x00, 0x00, 0x00, 0x0a, 0x00, 0x00, 0x00,
    0x48, 0x00, 0x00, 0x00, 0x04, 0x00, 0x00, 0x00, 0xff, 0xff, 0xff, 0xff,
    0x0f, 0x00, 0x00, 0x00, 0x0f, 0x00, 0x00, 0x00, 0x02, 0x00, 0x00, 0x00,
    0x10, 0xfc, 0xff, 0xff, 0x24, 0x00, 0x00, 0x00, 0x73, 0x65, 0x71, 0x75,
    0x65, 0x6e, 0x74, 0x69, 0x61, 0x6c, 0x5f, 0x35, 0x2f, 0x6d, 0x61, 0x78,
    0x5f, 0x70, 0x6f, 0x6f, 0x6c, 0x69, 0x6e, 0x67, 0x32, 0x64, 0x5f, 0x35,
    0x2f, 0x4d, 0x61, 0x78, 0x50, 0x6f, 0x6f, 0x6c, 0x00, 0x00, 0x00, 0x00,
    0x04, 0x00, 0x00, 0x00, 0x01, 0x00, 0x00, 0x00, 0x0f, 0x00, 0x00, 0x00,
    0x0f, 0x00, 0x00, 0x00, 0x02, 0x00, 0x00, 0x00, 0x9a, 0xfc, 0xff, 0xff,
    0x00, 0x00, 0x00, 0x01, 0x14, 0x00, 0x00, 0x00, 0x24, 0x00, 0x00, 0x00,
    0x24, 0x00, 0x00, 0x00, 0x09, 0x00, 0x00, 0x00, 0xc8, 0x00, 0x00, 0x00,
    0x04, 0x00, 0x00, 0x00, 0xff, 0xff, 0xff, 0xff, 0x1e, 0x00, 0x00, 0x00,
    0x1e, 0x00, 0x00, 0x00, 0x02, 0x00, 0x00, 0x00, 0x84, 0xfc, 0xff, 0xff,
    0xa4, 0x00, 0x00, 0x00, 0x73, 0x65, 0x71, 0x75, 0x65, 0x6e, 0x74, 0x69,
    0x61, 0x6c, 0x5f, 0x35, 0x2f, 0x63, 0x6f, 0x6e, 0x76, 0x32, 0x64, 0x5f,
    0x31, 0x30, 0x2f, 0x52, 0x65, 0x6c, 0x75, 0x3b, 0x73, 0x65, 0x71, 0x75,
    0x65, 0x6e, 0x74, 0x69, 0x61, 0x6c, 0x5f, 0x35, 0x2f, 0x63, 0x6f, 0x6e,
    0x76, 0x32, 0x64, 0x5f, 0x31, 0x30, 0x2f, 0x42, 0x69, 0x61, 0x73, 0x41,
    0x64, 0x64, 0x3b, 0x73, 0x65, 0x71, 0x75, 0x65, 0x6e, 0x74, 0x69, 0x61,
    0x6c, 0x5f, 0x35, 0x2f, 0x63, 0x6f, 0x6e, 0x76, 0x32, 0x64, 0x5f, 0x31,
    0x31, 0x2f, 0x43, 0x6f, 0x6e, 0x76, 0x32, 0x44, 0x3b, 0x73, 0x65, 0x71,
    0x75, 0x65, 0x6e, 0x74, 0x69, 0x61, 0x6c, 0x5f, 0x35, 0x2f, 0x63, 0x6f,
    0x6e, 0x76, 0x32, 0x64, 0x5f, 0x31, 0x30, 0x2f, 0x43, 0x6f, 0x6e, 0x76,
    0x32, 0x44, 0x3b, 0x73, 0x65, 0x71, 0x75, 0x65, 0x6e, 0x74, 0x69, 0x61,
    0x6c, 0x5f, 0x35, 0x2f, 0x63, 0x6f, 0x6e, 0x76, 0x32, 0x64, 0x5f, 0x31,
    0x30, 0x2f, 0x42, 0x69, 0x61, 0x73, 0x41, 0x64, 0x64, 0x2f, 0x52, 0x65,
    0x61, 0x64, 0x56, 0x61, 0x72, 0x69, 0x61, 0x62, 0x6c, 0x65, 0x4f, 0x70,
    0x00, 0x00, 0x00, 0x00, 0x04, 0x00, 0x00, 0x00, 0x01, 0x00, 0x00, 0x00,
    0x1e, 0x00, 0x00, 0x00, 0x1e, 0x00, 0x00, 0x00, 0x02, 0x00, 0x00, 0x00,
    0xfe, 0xfd, 0xff, 0xff, 0x00, 0x00, 0x00, 0x01, 0x10, 0x00, 0x00, 0x00,
    0x10, 0x00, 0x00, 0x00, 0x08, 0x00, 0x00, 0x00, 0x28, 0x00, 0x00, 0x00,
    0x60, 0xfd, 0xff, 0xff, 0x1b, 0x00, 0x00, 0x00, 0x73, 0x65, 0x71, 0x75,
    0x65, 0x6e, 0x74, 0x69, 0x61, 0x6c, 0x5f, 0x35, 0x2f, 0x64, 0x65, 0x6e,
    0x73, 0x65, 0x5f, 0x35, 0x2f, 0x4d, 0x61, 0x74, 0x4d, 0x75, 0x6c, 0x00,
    0x02, 0x00, 0x00, 0x00, 0x02, 0x00, 0x00, 0x00, 0x52, 0x01, 0x00, 0x00,
    0x00, 0x00, 0x16, 0x00, 0x1c, 0x00, 0x18, 0x00, 0x17, 0x00, 0x10, 0x00,
    0x0c, 0x00, 0x08, 0x00, 0x00, 0x00, 0x00, 0x00, 0x00, 0x00, 0x07, 0x00,
    0x16, 0x00, 0x00, 0x00, 0x00, 0x00, 0x00, 0x01, 0x14, 0x00, 0x00, 0x00,
    0x14, 0x00, 0x00, 0x00, 0x07, 0x00, 0x00, 0x00, 0x00, 0x00, 0x00, 0x02,
    0x2c, 0x00, 0x00, 0x00, 0xc4, 0xfd, 0xff, 0xff, 0x1c, 0x00, 0x00, 0x00,
    0x73, 0x65, 0x71, 0x75, 0x65, 0x6e, 0x74, 0x69, 0x61, 0x6c, 0x5f, 0x35,
    0x2f, 0x66, 0x6c, 0x61, 0x74, 0x74, 0x65, 0x6e, 0x5f, 0x35, 0x2f, 0x43,
    0x6f, 0x6e, 0x73, 0x74, 0x00, 0x00, 0x00, 0x00, 0x01, 0x00, 0x00, 0x00,
    0x02, 0x00, 0x00, 0x00, 0xaa, 0xfe, 0xff, 0xff, 0x00, 0x00, 0x00, 0x01,
    0x10, 0x00, 0x00, 0x00, 0x10, 0x00, 0x00, 0x00, 0x06, 0x00, 0x00, 0x00,
    0x38, 0x00, 0x00, 0x00, 0x0c, 0xfe, 0xff, 0xff, 0x2b, 0x00, 0x00, 0x00,
    0x73, 0x65, 0x71, 0x75, 0x65, 0x6e, 0x74, 0x69, 0x61, 0x6c, 0x5f, 0x35,
    0x2f, 0x64, 0x65, 0x6e, 0x73, 0x65, 0x5f, 0x35, 0x2f, 0x42, 0x69, 0x61,
    0x73, 0x41, 0x64, 0x64, 0x2f, 0x52, 0x65, 0x61, 0x64, 0x56, 0x61, 0x72,
    0x69, 0x61, 0x62, 0x6c, 0x65, 0x4f, 0x70, 0x00, 0x01, 0x00, 0x00, 0x00,
    0x02, 0x00, 0x00, 0x00, 0xfe, 0xfe, 0xff, 0xff, 0x00, 0x00, 0x00, 0x01,
    0x10, 0x00, 0x00, 0x00, 0x10, 0x00, 0x00, 0x00, 0x05, 0x00, 0x00, 0x00,
    0x2c, 0x00, 0x00, 0x00, 0x60, 0xfe, 0xff, 0xff, 0x1d, 0x00, 0x00, 0x00,
    0x73, 0x65, 0x71, 0x75, 0x65, 0x6e, 0x74, 0x69, 0x61, 0x6c, 0x5f, 0x35,
    0x2f, 0x63, 0x6f, 0x6e, 0x76, 0x32, 0x64, 0x5f, 0x31, 0x31, 0x2f, 0x43,
    0x6f, 0x6e, 0x76, 0x32, 0x44, 0x00, 0x00, 0x00, 0x04, 0x00, 0x00, 0x00,
    0x02, 0x00, 0x00, 0x00, 0x03, 0x00, 0x00, 0x00, 0x03, 0x00, 0x00, 0x00,
    0x02, 0x00, 0x00, 0x00, 0x52, 0xff, 0xff, 0xff, 0x00, 0x00, 0x00, 0x01,
    0x10, 0x00, 0x00, 0x00, 0x10, 0x00, 0x00, 0x00, 0x04, 0x00, 0x00, 0x00,
    0x2c, 0x00, 0x00, 0x00, 0xb4, 0xfe, 0xff, 0xff, 0x1d, 0x00, 0x00, 0x00,
    0x73, 0x65, 0x71, 0x75, 0x65, 0x6e, 0x74, 0x69, 0x61, 0x6c, 0x5f, 0x35,
    0x2f, 0x63, 0x6f, 0x6e, 0x76, 0x32, 0x64, 0x5f, 0x31, 0x30, 0x2f, 0x43,
    0x6f, 0x6e, 0x76, 0x32, 0x44, 0x00, 0x00, 0x00, 0x04, 0x00, 0x00, 0x00,
    0x02, 0x00, 0x00, 0x00, 0x03, 0x00, 0x00, 0x00, 0x03, 0x00, 0x00, 0x00,
    0x03, 0x00, 0x00, 0x00, 0xa6, 0xff, 0xff, 0xff, 0x00, 0x00, 0x00, 0x01,
    0x10, 0x00, 0x00, 0x00, 0x10, 0x00, 0x00, 0x00, 0x03, 0x00, 0x00, 0x00,
    0x3c, 0x00, 0x00, 0x00, 0x08, 0xff, 0xff, 0xff, 0x2d, 0x00, 0x00, 0x00,
    0x73, 0x65, 0x71, 0x75, 0x65, 0x6e, 0x74, 0x69, 0x61, 0x6c, 0x5f, 0x35,
    0x2f, 0x63, 0x6f, 0x6e, 0x76, 0x32, 0x64, 0x5f, 0x31, 0x31, 0x2f, 0x42,
    0x69, 0x61, 0x73, 0x41, 0x64, 0x64, 0x2f, 0x52, 0x65, 0x61, 0x64, 0x56,
    0x61, 0x72, 0x69, 0x61, 0x62, 0x6c, 0x65, 0x4f, 0x70, 0x00, 0x00, 0x00,
    0x01, 0x00, 0x00, 0x00, 0x02, 0x00, 0x00, 0x00, 0x00, 0x00, 0x16, 0x00,
    0x18, 0x00, 0x14, 0x00, 0x00, 0x00, 0x10, 0x00, 0x0c, 0x00, 0x08, 0x00,
    0x00, 0x00, 0x00, 0x00, 0x00, 0x00, 0x07, 0x00, 0x16, 0x00, 0x00, 0x00,
    0x00, 0x00, 0x00, 0x01, 0x10, 0x00, 0x00, 0x00, 0x10, 0x00, 0x00, 0x00,
    0x02, 0x00, 0x00, 0x00, 0x3c, 0x00, 0x00, 0x00, 0x78, 0xff, 0xff, 0xff,
    0x2d, 0x00, 0x00, 0x00, 0x73, 0x65, 0x71, 0x75, 0x65, 0x6e, 0x74, 0x69,
    0x61, 0x6c, 0x5f, 0x35, 0x2f, 0x63, 0x6f, 0x6e, 0x76, 0x32, 0x64, 0x5f,
    0x31, 0x30, 0x2f, 0x42, 0x69, 0x61, 0x73, 0x41, 0x64, 0x64, 0x2f, 0x52,
    0x65, 0x61, 0x64, 0x56, 0x61, 0x72, 0x69, 0x61, 0x62, 0x6c, 0x65, 0x4f,
    0x70, 0x00, 0x00, 0x00, 0x01, 0x00, 0x00, 0x00, 0x02, 0x00, 0x00, 0x00,
    0x00, 0x00, 0x16, 0x00, 0x1c, 0x00, 0x18, 0x00, 0x00, 0x00, 0x14, 0x00,
    0x10, 0x00, 0x0c, 0x00, 0x00, 0x00, 0x00, 0x00, 0x08, 0x00, 0x07, 0x00,
    0x16, 0x00, 0x00, 0x00, 0x00, 0x00, 0x00, 0x01, 0x14, 0x00, 0x00, 0x00,
    0x28, 0x00, 0x00, 0x00, 0x28, 0x00, 0x00, 0x00, 0x01, 0x00, 0x00, 0x00,
    0x48, 0x00, 0x00, 0x00, 0x04, 0x00, 0x00, 0x00, 0xff, 0xff, 0xff, 0xff,
    0x20, 0x00, 0x00, 0x00, 0x20, 0x00, 0x00, 0x00, 0x03, 0x00, 0x00, 0x00,
    0x04, 0x00, 0x04, 0x00, 0x04, 0x00, 0x00, 0x00, 0x21, 0x00, 0x00, 0x00,
    0x73, 0x65, 0x72, 0x76, 0x69, 0x6e, 0x67, 0x5f, 0x64, 0x65, 0x66, 0x61,
    0x75, 0x6c, 0x74, 0x5f, 0x63, 0x6f, 0x6e, 0x76, 0x32, 0x64, 0x5f, 0x31,
    0x30, 0x5f, 0x69, 0x6e, 0x70, 0x75, 0x74, 0x3a, 0x30, 0x00, 0x00, 0x00,
    0x04, 0x00, 0x00, 0x00, 0x01, 0x00, 0x00, 0x00, 0x20, 0x00, 0x00, 0x00,
    0x20, 0x00, 0x00, 0x00, 0x03, 0x00, 0x00, 0x00, 0x05, 0x00, 0x00, 0x00,
    0x50, 0x00, 0x00, 0x00, 0x34, 0x00, 0x00, 0x00, 0x24, 0x00, 0x00, 0x00,
    0x14, 0x00, 0x00, 0x00, 0x04, 0x00, 0x00, 0x00, 0xd0, 0xff, 0xff, 0xff,
    0x19, 0x00, 0x00, 0x00, 0x00, 0x00, 0x00, 0x19, 0xdc, 0xff, 0xff, 0xff,
    0x09, 0x00, 0x00, 0x00, 0x00, 0x00, 0x00, 0x09, 0xe8, 0xff, 0xff, 0xff,
    0x16, 0x00, 0x00, 0x00, 0x00, 0x00, 0x00, 0x16, 0xf4, 0xff, 0xff, 0xff,
    0x11, 0x00, 0x00, 0x00, 0x00, 0x00, 0x00, 0x11, 0x0c, 0x00, 0x0c, 0x00,
    0x0b, 0x00, 0x00, 0x00, 0x00, 0x00, 0x04, 0x00, 0x0c, 0x00, 0x00, 0x00,
    0x03, 0x00, 0x00, 0x00, 0x00, 0x00, 0x00, 0x03};
unsigned int flower_model_tflite_len = 5996;
